<pad>	0
<unk>	0
<bos>	0
<eos>	0
▁t	-0
ie	-1
▁w	-2
▁s	-3
▁p	-4
▁a	-5
he	-6
in	-7
▁o	-8
▁m	-9
re	-10
an	-11
▁n	-12
▁d	-13
st	-14
▁c	-15
on	-16
ou	-17
at	-18
▁b	-19
ow	-20
▁the	-21
er	-22
▁z	-23
en	-24
▁I	-25
▁i	-26
or	-27
▁to	-28
le	-29
ro	-30
ar	-31
ch	-32
rz	-33
sz	-34
ia	-35
▁j	-36
▁f	-37
li	-38
go	-39
ing	-40
ra	-41
▁y	-42
▁k	-43
▁T	-44
cz	-45
dz	-46
ed	-47
▁you	-48
ll	-49
ię	-50
am	-51
▁W	-52
▁h	-53
▁th	-54
om	-55
▁in	-56
ak	-57
is	-58
nd	-59
▁of	-60
it	-61
▁do	-62
em	-63
as	-64
▁u	-65
▁N	-66
▁C	-67
▁M	-68
▁po	-69
ve	-70
▁g	-71
▁P	-72
▁A	-73
▁na	-74
▁S	-75
ce	-76
ion	-77
al	-78
▁nie	-79
est	-80
et	-81
ot	-82
nie	-83
że	-84
ut	-85
▁prz	-86
ne	-87
ad	-88
ym	-89
▁l	-90
▁be	-91
▁and	-92
▁się	-93
ni	-94
▁re	-95
▁D	-96
▁st	-97
ci	-98
es	-99
ał	-100
ent	-101
▁J	-102
im	-103
▁he	-104
▁B	-105
ic	-106
▁e	-107
ay	-108
ów	-109
▁go	-110
ych	-111
▁it	-112
od	-113
▁za	-114
na	-115
ac	-116
id	-117
▁that	-118
▁mo	-119
▁O	-120
▁H	-121
ego	-122
▁is	-123
▁że	-124
▁Y	-125
..	-126
▁for	-127
se	-128
▁we	-129
ig	-130
▁by	-131
▁r	-132
▁jest	-133
aj	-134
▁pro	-135
ld	-136
▁wy	-137
▁me	-138
dzie	-139
hat	-140
▁on	-141
oś	-142
▁Nie	-143
ej	-144
ła	-145
ur	-146
ct	-147
ka	-148
▁sp	-149
ko	-150
ver	-151
cie	-152
ob	-153
▁li	-154
▁ch	-155
zy	-156
▁You	-157
▁ro	-158
▁ha	-159
▁E	-160
▁The	-161
▁R	-162
je	-163
aw	-164
wo	-165
ht	-166
eś	-167
ation	-168
▁2	-169
▁Z	-170
rze	-171
▁G	-172
ki	-173
ith	-174
▁1	-175
▁L	-176
ly	-177
▁K	-178
la	-179
ry	-180
ny	-181
os	-182
ku	-183
ir	-184
wa	-185
▁with	-186
ust	-187
▁tak	-188
▁not	-189
ty	-190
us	-191
▁od	-192
iał	-193
my	-194
▁co	-195
▁this	-196
▁was	-197
all	-198
ant	-199
▁my	-200
czy	-201
cy	-202
ać	-203
op	-204
▁have	-205
▁przy	-206
ul	-207
▁prze	-208
▁le	-209
by	-210
um	-211
dy	-212
▁To	-213
anie	-214
▁We	-215
▁cz	-216
▁jak	-217
raw	-218
ould	-219
il	-220
now	-221
▁sh	-222
▁se	-223
ol	-224
ome	-225
ight	-226
her	-227
▁are	-228
dzi	-229
▁pow	-230
▁your	-231
un	-232
ub	-233
ok	-234
00	-235
▁as	-236
ill	-237
▁ne	-238
art	-239
ży	-240
el	-241
ją	-242
...	-243
ter	-244
▁It	-245
pp	-246
▁de	-247
sp	-248
▁kt	-249
szy	-250
▁F	-251
▁know	-252
bi	-253
ję	-254
▁dz	-255
▁wh	-256
one	-257
and	-258
ate	-259
wie	-260
kie	-261
ania	-262
▁te	-263
res	-264
▁con	-265
▁can	-266
▁wie	-267
ji	-268
▁or	-269
ost	-270
ią	-271
▁He	-272
▁ty	-273
▁mi	-274
▁U	-275
▁an	-276
▁Ch	-277
nia	-278
ca	-279
ości	-280
ke	-281
out	-282
▁at	-283
▁któ	-284
▁ś	-285
▁-	-286
ble	-287
ag	-288
ło	-289
ort	-290
nt	-291
ive	-292
ru	-293
▁pod	-294
ja	-295
ist	-296
hing	-297
▁ob	-298
▁all	-299
▁what	-300
▁sz	-301
▁ab	-302
du	-303
▁out	-304
▁up	-305
▁don	-306
▁mnie	-307
enia	-308
▁roz	-309
ani	-310
▁ex	-311
▁ra	-312
łu	-313
ek	-314
▁"	-315
▁ma	-316
▁lo	-317
ies	-318
ają	-319
rom	-320
ap	-321
▁su	-322
▁al	-323
ąd	-324
nych	-325
ers	-326
▁just	-327
ami	-328
fe	-329
▁com	-330
▁St	-331
kow	-332
ment	-333
ich	-334
az	-335
rzy	-336
row	-337
og	-338
kt	-339
cia	-340
red	-341
▁No	-342
▁get	-343
▁here	-344
▁so	-345
ard	-346
qu	-347
cze	-348
▁us	-349
owie	-350
▁Th	-351
ss	-352
ró	-353
bie	-354
ink	-355
▁like	-356
pe	-357
▁there	-358
▁about	-359
▁What	-360
wi	-361
ain	-362
ud	-363
▁Jest	-364
ck	-365
▁want	-366
ły	-367
▁200	-368
▁And	-369
ną	-370
▁wor	-371
▁tym	-372
te	-373
▁dla	-374
enie	-375
ój	-376
▁from	-377
ach	-378
▁got	-379
very	-380
▁no	-381
ali	-382
ack	-383
▁him	-384
ast	-385
▁bę	-386
▁im	-387
ri	-388
▁right	-389
▁one	-390
▁op	-391
no	-392
▁whe	-393
ron	-394
▁now	-395
ier	-396
end	-397
▁but	-398
▁did	-399
▁ar	-400
ind	-401
ally	-402
szyst	-403
ane	-404
▁pe	-405
▁ko	-406
▁her	-407
oug	-408
ep	-409
orz	-410
iej	-411
▁any	-412
ore	-413
▁will	-414
nego	-415
uje	-416
▁v	-417
uro	-418
▁tego	-419
▁think	-420
ran	-421
orm	-422
▁3	-423
▁That	-424
ań	-425
ber	-426
ity	-427
any	-428
▁sam	-429
ure	-430
▁Co	-431
▁they	-432
aż	-433
łem	-434
ine	-435
▁ale	-436
to	-437
uż	-438
ab	-439
ge	-440
▁pra	-441
śmy	-442
ime	-443
▁two	-444
▁Tak	-445
▁dzie	-446
nym	-447
ary	-448
▁pan	-449
szę	-450
▁mu	-451
mi	-452
▁przez	-453
dział	-454
ther	-455
▁jed	-456
ość	-457
▁może	-458
lko	-459
▁ci	-460
sze	-461
▁pom	-462
▁Mo	-463
our	-464
▁if	-465
▁są	-466
▁mog	-467
iss	-468
ea	-469
▁ok	-470
▁wszyst	-471
▁kon	-472
▁je	-473
łaś	-474
ys	-475
śl	-476
ven	-477
if	-478
dę	-479
ności	-480
▁pl	-481
ice	-482
▁powie	-483
▁some	-484
ose	-485
▁need	-486
▁Euro	-487
▁been	-488
mie	-489
▁lub	-490
▁ze	-491
ase	-492
▁Ale	-493
▁Po	-494
omm	-495
▁would	-496
▁cię	-497
nej	-498
ance	-499
ess	-500
we	-501
ound	-502
▁zost	-503
▁będzie	-504
asz	-505
▁This	-506
ała	-507
▁ad	-508
▁she	-509
▁produ	-510
ól	-511
▁en	-512
arz	-513
▁who	-514
▁ag	-515
▁dob	-516
▁mam	-517
▁bo	-518
▁sk	-519
▁But	-520
eśli	-521
▁ter	-522
▁sa	-523
▁time	-524
ake	-525
▁tu	-526
▁were	-527
▁być	-528
form	-529
▁zro	-530
ied	-531
▁praw	-532
▁czy	-533
▁ży	-534
yt	-535
▁Cz	-536
ków	-537
▁should	-538
pie	-539
▁pot	-540
ord	-541
▁his	-542
▁see	-543
▁Oh	-544
▁Well	-545
▁has	-546
ions	-547
ują	-548
obie	-549
▁am	-550
▁gu	-551
iad	-552
▁My	-553
▁In	-554
▁poz	-555
own	-556
▁tylko	-557
▁zna	-558
▁Wh	-559
▁So	-560
łam	-561
▁przed	-562
▁back	-563
▁them	-564
ść	-565
ans	-566
▁app	-567
ale	-568
▁Comm	-569
niej	-570
czą	-571
cji	-572
wy	-573
ody	-574
▁wi	-575
▁Jak	-576
▁Do	-577
▁Re	-578
acji	-579
are	-580
gl	-581
▁ac	-582
ować	-583
▁comp	-584
▁wię	-585
▁imp	-586
reat	-587
use	-588
ić	-589
ire	-590
ear	-591
raz	-592
ądz	-593
▁Wy	-594
▁.	-595
onna	-596
▁our	-597
ous	-598
th	-599
▁Wie	-600
▁say	-601
▁going	-602
skie	-603
ember	-604
▁pre	-605
ęp	-606
ałem	-607
omet	-608
▁4	-609
alk	-610
▁good	-611
▁gonna	-612
▁She	-613
▁could	-614
ady	-615
▁bar	-616
ame	-617
▁wsp	-618
▁had	-619
ide	-620
▁look	-621
▁fe	-622
▁spraw	-623
emy	-624
ba	-625
cę	-626
▁man	-627
ście	-628
way	-629
ong	-630
▁,	-631
▁ust	-632
▁mus	-633
led	-634
▁które	-635
▁zd	-636
▁off	-637
ank	-638
▁work	-639
▁V	-640
iedy	-641
▁już	-642
lo	-643
▁shall	-644
nder	-645
iebie	-646
ough	-647
rod	-648
rowa	-649
▁tra	-650
les	-651
ład	-652
ana	-653
eah	-654
rzym	-655
be	-656
▁mów	-657
▁They	-658
stwa	-659
▁coś	-660
▁thing	-661
owe	-662
▁5	-663
ół	-664
▁jesteś	-665
▁Ar	-666
ff	-667
▁czas	-668
▁ni	-669
▁qu	-670
ick	-671
▁sy	-672
▁more	-673
▁Pro	-674
▁Sp	-675
oz	-676
▁which	-677
▁spe	-678
▁part	-679
ało	-680
kę	-681
▁other	-682
ony	-683
▁Dz	-684
ory	-685
lu	-686
▁cont	-687
ction	-688
thing	-689
▁naj	-690
▁when	-691
▁reg	-692
▁zrobi	-693
ark	-694
ren	-695
act	-696
▁bez	-697
▁lu	-698
▁every	-699
cho	-700
ving	-701
isz	-702
lic	-703
▁way	-704
ated	-705
▁fa	-706
▁take	-707
▁Mam	-708
iąz	-709
god	-710
▁jej	-711
owy	-712
ult	-713
▁był	-714
ial	-715
▁somet	-716
▁ja	-717
▁tell	-718
▁lat	-719
staw	-720
pt	-721
liśmy	-722
▁under	-723
▁zw	-724
▁Whe	-725
▁zap	-726
▁swo	-727
gi	-728
▁ich	-729
tle	-730
emu	-731
▁moż	-732
▁down	-733
ations	-734
▁Czy	-735
ien	-736
ount	-737
▁There	-738
▁ż	-739
per	-740
▁os	-741
stęp	-742
kiem	-743
▁didn	-744
tic	-745
ści	-746
ond	-747
sel	-748
▁oraz	-749
▁over	-750
▁inform	-751
▁20	-752
▁bet	-753
▁may	-754
▁19	-755
▁Na	-756
ta	-757
iała	-758
imy	-759
▁Yeah	-760
pad	-761
▁mie	-762
▁If	-763
▁come	-764
bo	-765
▁tam	-766
de	-767
kich	-768
gra	-769
waż	-770
ople	-771
▁ser	-772
▁something	-773
kaz	-774
ił	-775
▁rozp	-776
▁jego	-777
dzieć	-778
▁powin	-779
ave	-780
▁raz	-781
▁tr	-782
▁ten	-783
▁fin	-784
▁their	-785
▁how	-786
▁Może	-787
cause	-788
▁per	-789
owania	-790
lie	-791
▁make	-792
▁Mr	-793
so	-794
óż	-795
owych	-796
▁min	-797
▁happ	-798
▁only	-799
▁dom	-800
czego	-801
łon	-802
szcz	-803
▁fir	-804
▁year	-805
ały	-806
▁lit	-807
▁day	-808
▁af	-809
▁really	-810
dzo	-811
ang	-812
szcze	-813
ec	-814
▁Kom	-815
anych	-816
▁talk	-817
cych	-818
eni	-819
▁How	-820
▁zak	-821
▁nas	-822
▁mat	-823
▁żeby	-824
▁By	-825
ens	-826
▁odp	-827
ission	-828
sk	-829
bym	-830
ree	-831
rie	-832
▁któr	-833
▁into	-834
▁6	-835
▁let	-836
fore	-837
ates	-838
dzin	-839
▁Przy	-840
awia	-841
▁sobie	-842
ącz	-843
▁rep	-844
▁Ok	-845
int	-846
▁jestem	-847
ved	-848
▁where	-849
oc	-850
▁9	-851
da	-852
niu	-853
▁people	-854
śli	-855
able	-856
ite	-857
ning	-858
uję	-859
▁było	-860
▁does	-861
ip	-862
▁dis	-863
▁Dob	-864
▁Prze	-865
ctive	-866
ass	-867
czyć	-868
▁never	-869
ór	-870
age	-871
nik	-872
▁gdy	-873
ue	-874
other	-875
▁kiedy	-876
▁Europe	-877
lp	-878
lis	-879
▁than	-880
ood	-881
ought	-882
ii	-883
oba	-884
▁br	-885
▁Reg	-886
▁cl	-887
▁Be	-888
▁All	-889
▁An	-890
owanie	-891
orządz	-892
▁too	-893
ulation	-894
ymi	-895
▁rze	-896
▁poli	-897
get	-898
▁teraz	-899
ress	-900
ement	-901
dzy	-902
▁wz	-903
▁ciebie	-904
▁help	-905
ting	-906
iejs	-907
▁nasz	-908
ciał	-909
▁said	-910
ced	-911
ght	-912
ęd	-913
praw	-914
rzeb	-915
▁then	-916
▁Za	-917
ierw	-918
amy	-919
ycz	-920
ces	-921
uj	-922
▁Don	-923
cess	-924
▁very	-925
nion	-926
▁again	-927
▁par	-928
▁sub	-929
▁acc	-930
lease	-931
zna	-932
ery	-933
min	-934
▁Wię	-935
cej	-936
▁chce	-937
▁jeśli	-938
▁Is	-939
▁Artic	-940
▁Bo	-941
▁Ty	-942
▁wszystko	-943
ałam	-944
up	-945
▁gr	-946
▁miejs	-947
▁art	-948
kty	-949
▁little	-950
▁Jesteś	-951
▁pań	-952
rowadz	-953
▁exp	-954
▁love	-955
▁ją	-956
odzi	-957
▁8	-958
▁mogę	-959
▁Hey	-960
owa	-961
ted	-962
▁new	-963
ons	-964
ona	-965
▁Jestem	-966
▁aut	-967
▁Jeśli	-968
▁these	-969
▁fu	-970
▁inc	-971
ura	-972
▁bardzo	-973
▁przep	-974
▁Lo	-975
▁mean	-976
▁gł	-977
▁Mus	-978
wn	-979
▁pani	-980
iv	-981
vel	-982
gląd	-983
▁find	-984
▁must	-985
▁prov	-986
umie	-987
łeś	-988
▁un	-989
▁act	-990
ert	-991
ade	-992
▁7	-993
▁On	-994
orzy	-995
▁cel	-996
▁war	-997
▁bad	-998
▁środ	-999
▁proble	-1000
▁por	-1001
▁hand	-1002
rób	-1003
▁zas	-1004
▁Komis	-1005
fi	-1006
▁zam	-1007
not	-1008
kon	-1009
▁pla	-1010
owi	-1011
▁Commission	-1012
che	-1013
▁ry	-1014
▁Article	-1015
▁first	-1016
▁nad	-1017
▁sec	-1018
gł	-1019
▁Więc	-1020
▁tran	-1021
pej	-1022
▁Od	-1023
rac	-1024
ise	-1025
▁dnia	-1026
▁miał	-1027
ób	-1028
▁car	-1029
owego	-1030
▁zaw	-1031
▁em	-1032
igdy	-1033
co	-1034
cią	-1035
self	-1036
▁robi	-1037
riend	-1038
▁Let	-1039
aniu	-1040
ze	-1041
ait	-1042
▁cał	-1043
iędzy	-1044
▁kil	-1045
ition	-1046
▁syst	-1047
▁even	-1048
ata	-1049
▁ost	-1050
ned	-1051
▁Why	-1052
▁pew	-1053
▁European	-1054
łonkow	-1055
czę	-1056
▁call	-1057
▁Regulation	-1058
ather	-1059
▁Je	-1060
▁rem	-1061
▁stos	-1062
▁mon	-1063
▁też	-1064
lat	-1065
▁much	-1066
▁og	-1067
▁tw	-1068
ile	-1069
▁those	-1070
."	-1071
▁doty	-1072
rasz	-1073
tu	-1074
orry	-1075
utaj	-1076
▁tej	-1077
▁'	-1078
▁nam	-1079
▁bu	-1080
ga	-1081
arl	-1082
▁list	-1083
▁jeszcze	-1084
▁wiem	-1085
▁rozporządz	-1086
▁pos	-1087
▁inte	-1088
rop	-1089
▁Just	-1090
▁właś	-1091
mit	-1092
▁problem	-1093
▁inst	-1094
▁Member	-1095
▁wp	-1096
▁life	-1097
▁still	-1098
aje	-1099
▁pop	-1100
▁odpowie	-1101
▁after	-1102
▁ass	-1103
▁inter	-1104
▁long	-1105
▁Okay	-1106
▁kom	-1107
▁wyd	-1108
▁wym	-1109
▁dobrze	-1110
▁feel	-1111
stwo	-1112
cts	-1113
ność	-1114
▁before	-1115
▁nic	-1116
łuch	-1117
▁Now	-1118
▁res	-1119
ką	-1120
ell	-1121
ft	-1122
ano	-1123
der	-1124
aty	-1125
▁cons	-1126
▁supp	-1127
▁ask	-1128
▁aby	-1129
▁um	-1130
▁nim	-1131
▁plan	-1132
▁niż	-1133
▁pon	-1134
▁ke	-1135
czne	-1136
▁happen	-1137
▁id	-1138
ence	-1139
▁why	-1140
dzić	-1141
▁pat	-1142
cial	-1143
▁każ	-1144
▁Ja	-1145
stw	-1146
▁fo	-1147
ew	-1148
▁org	-1149
▁10	-1150
▁stron	-1151
▁przyj	-1152
▁stop	-1153
▁zn	-1154
usz	-1155
tro	-1156
AR	-1157
arm	-1158
day	-1159
fic	-1160
▁well	-1161
ild	-1162
su	-1163
▁Where	-1164
▁dy	-1165
▁Sh	-1166
▁Powie	-1167
▁Al	-1168
olog	-1169
▁met	-1170
▁nale	-1171
ors	-1172
▁che	-1173
▁try	-1174
fer	-1175
ish	-1176
▁dr	-1177
▁Not	-1178
▁give	-1179
▁Come	-1180
▁years	-1181
▁Jo	-1182
▁zab	-1183
cą	-1184
acie	-1185
▁its	-1186
cj	-1187
cent	-1188
▁gdzie	-1189
oun	-1190
ner	-1191
▁EC	-1192
▁because	-1193
▁Mar	-1194
owej	-1195
oby	-1196
▁doing	-1197
▁anything	-1198
gram	-1199
▁also	-1200
ute	-1201
▁last	-1202
raj	-1203
▁lot	-1204
cu	-1205
▁rów	-1206
ple	-1207
▁pierw	-1208
▁przypad	-1209
ina	-1210
▁thought	-1211
jego	-1212
▁Look	-1213
jej	-1214
▁Yes	-1215
▁spo	-1216
▁dost	-1217
▁tutaj	-1218
au	-1219
▁bro	-1220
liw	-1221
się	-1222
kol	-1223
ph	-1224
róci	-1225
kład	-1226
▁pub	-1227
▁sure	-1228
▁home	-1229
▁zgod	-1230
cer	-1231
oney	-1232
ener	-1233
ical	-1234
▁belie	-1235
ular	-1236
▁201	-1237
▁który	-1238
▁domu	-1239
ision	-1240
wier	-1241
▁pr	-1242
▁Dla	-1243
iz	-1244
ual	-1245
▁wł	-1246
▁sm	-1247
▁szcze	-1248
dzę	-1249
▁była	-1250
ating	-1251
▁May	-1252
och	-1253
zd	-1254
▁WE	-1255
▁Europej	-1256
▁made	-1257
▁place	-1258
ath	-1259
ięt	-1260
ible	-1261
▁mar	-1262
▁use	-1263
▁night	-1264
▁prost	-1265
ities	-1266
▁friend	-1267
dź	-1268
▁sc	-1269
▁Proszę	-1270
nę	-1271
czenia	-1272
irl	-1273
▁tych	-1274
lly	-1275
oty	-1276
ury	-1277
iś	-1278
▁dru	-1279
ięk	-1280
ret	-1281
▁potrzeb	-1282
▁dro	-1283
▁okay	-1284
old	-1285
▁ent	-1286
yba	-1287
icie	-1288
▁system	-1289
▁dotyczą	-1290
hor	-1291
uch	-1292
▁masz	-1293
▁porz	-1294
łop	-1295
▁ind	-1296
ałeś	-1297
wiad	-1298
▁start	-1299
▁pers	-1300
szą	-1301
▁resp	-1302
▁such	-1303
▁des	-1304
▁takie	-1305
sie	-1306
▁zat	-1307
▁pri	-1308
ciw	-1309
▁Ś	-1310
ious	-1311
▁okre	-1312
▁import	-1313
bili	-1314
unity	-1315
▁States	-1316
▁put	-1317
rzed	-1318
▁requ	-1319
▁zmie	-1320
▁nr	-1321
▁EU	-1322
llow	-1323
ves	-1324
▁ł	-1325
▁Ż	-1326
▁spos	-1327
▁God	-1328
rud	-1329
▁Can	-1330
ign	-1331
▁great	-1332
▁czę	-1333
▁bra	-1334
▁dział	-1335
ures	-1336
▁Who	-1337
ód	-1338
▁thr	-1339
▁same	-1340
uk	-1341
ful	-1342
lem	-1343
▁zrobić	-1344
nika	-1345
ouse	-1346
▁niez	-1347
▁sie	-1348
▁prac	-1349
iąg	-1350
▁Am	-1351
cept	-1352
rat	-1353
ments	-1354
▁oper	-1355
▁rec	-1356
dziej	-1357
▁więc	-1358
wać	-1359
▁better	-1360
chę	-1361
cznie	-1362
▁dif	-1363
▁sorry	-1364
ways	-1365
▁mark	-1366
▁fun	-1367
▁Thank	-1368
erw	-1369
iast	-1370
scy	-1371
▁Are	-1372
nię	-1373
dą	-1374
ric	-1375
▁12	-1376
xt	-1377
▁tro	-1378
▁set	-1379
▁chciał	-1380
▁told	-1381
▁own	-1382
▁mój	-1383
▁pie	-1384
▁sur	-1385
▁comm	-1386
▁si	-1387
▁count	-1388
acy	-1389
▁ph	-1390
▁things	-1391
rent	-1392
onych	-1393
▁De	-1394
▁chcę	-1395
lud	-1396
▁through	-1397
cyz	-1398
▁keep	-1399
▁ta	-1400
rest	-1401
▁mak	-1402
body	-1403
▁więcej	-1404
▁życie	-1405
▁prawda	-1406
ujesz	-1407
dzą	-1408
▁girl	-1409
iniej	-1410
▁ele	-1411
sy	-1412
ational	-1413
kać	-1414
ctor	-1415
▁away	-1416
▁Sz	-1417
▁For	-1418
▁name	-1419
▁Dzię	-1420
mawia	-1421
▁believe	-1422
▁napraw	-1423
cję	-1424
hed	-1425
ytu	-1426
▁num	-1427
▁szczeg	-1428
urn	-1429
▁jako	-1430
▁zoba	-1431
▁ot	-1432
▁mom	-1433
▁ludzi	-1434
▁dłu	-1435
dzenia	-1436
▁koch	-1437
▁należy	-1438
▁mamy	-1439
▁porząd	-1440
po	-1441
▁gra	-1442
▁naw	-1443
ings	-1444
▁Roz	-1445
▁won	-1446
gin	-1447
szt	-1448
▁jakie	-1449
▁kole	-1450
▁powiedzieć	-1451
▁kid	-1452
▁wat	-1453
ciu	-1454
cja	-1455
▁wyk	-1456
▁show	-1457
cznych	-1458
ents	-1459
▁Se	-1460
owane	-1461
▁program	-1462
▁Myśl	-1463
▁around	-1464
eniu	-1465
nić	-1466
czeń	-1467
▁BAR	-1468
▁wait	-1469
▁Your	-1470
▁author	-1471
▁zabi	-1472
▁Le	-1473
▁used	-1474
iem	-1475
▁zast	-1476
▁określ	-1477
▁kill	-1478
▁Pod	-1479
▁Pow	-1480
▁bas	-1481
lep	-1482
ince	-1483
▁wspól	-1484
▁związ	-1485
rit	-1486
▁ani	-1487
▁Mu	-1488
▁rzeczy	-1489
działem	-1490
▁stan	-1491
ually	-1492
▁bi	-1493
▁Gdzie	-1494
ował	-1495
▁celu	-1496
▁mają	-1497
ator	-1498
łowie	-1499
▁kraj	-1500
▁ev	-1501
▁person	-1502
nak	-1503
▁Ma	-1504
▁always	-1505
▁med	-1506
▁being	-1507
▁care	-1508
▁199	-1509
igh	-1510
orzyst	-1511
▁det	-1512
▁cal	-1513
man	-1514
▁ever	-1515
▁kind	-1516
▁porządku	-1517
szyscy	-1518
óź	-1519
nij	-1520
▁Mów	-1521
▁zał	-1522
▁meet	-1523
▁których	-1524
odu	-1525
▁sw	-1526
▁world	-1527
▁end	-1528
▁świe	-1529
cyj	-1530
▁Ter	-1531
nienia	-1532
▁bl	-1533
cted	-1534
skiej	-1535
▁między	-1536
▁att	-1537
▁chcesz	-1538
▁rob	-1539
▁When	-1540
oth	-1541
vice	-1542
▁Wiem	-1543
łe	-1544
▁dec	-1545
sh	-1546
▁form	-1547
▁sprawie	-1548
▁Wsp	-1549
▁cle	-1550
▁oj	-1551
▁trze	-1552
▁Go	-1553
▁ostat	-1554
▁Wi	-1555
▁uży	-1556
▁fi	-1557
▁Fran	-1558
▁week	-1559
▁decyz	-1560
▁przest	-1561
▁Jed	-1562
▁sposób	-1563
▁Dlaczego	-1564
ace	-1565
▁doesn	-1566
▁proced	-1567
▁please	-1568
▁sir	-1569
stand	-1570
▁czego	-1571
▁found	-1572
▁możesz	-1573
zw	-1574
acje	-1575
▁Wszyst	-1576
▁rest	-1577
▁follow	-1578
▁chodzi	-1579
▁Did	-1580
raszam	-1581
▁might	-1582
acja	-1583
ween	-1584
▁Mog	-1585
bą	-1586
ffe	-1587
asy	-1588
▁spra	-1589
io	-1590
▁mó	-1591
ęż	-1592
szym	-1593
▁mogą	-1594
owym	-1595
▁guy	-1596
▁leave	-1597
▁myśl	-1598
▁everything	-1599
ange	-1600
cego	-1601
nymi	-1602
czenie	-1603
▁face	-1604
nież	-1605
▁Bar	-1606
▁Bę	-1607
▁członkow	-1608
wiek	-1609
cil	-1610
kach	-1611
▁guys	-1612
▁wom	-1613
--	-1614
▁kw	-1615
▁minut	-1616
▁prostu	-1617
▁nothing	-1618
▁cour	-1619
▁done	-1620
▁wanted	-1621
py	-1622
pos	-1623
".	-1624
ian	-1625
▁Wiesz	-1626
sza	-1627
▁trans	-1628
wol	-1629
▁bus	-1630
▁tech	-1631
▁Ag	-1632
▁Get	-1633
▁Coun	-1634
rzę	-1635
▁lep	-1636
▁roku	-1637
▁money	-1638
▁between	-1639
ope	-1640
▁nat	-1641
▁czasu	-1642
kolwiek	-1643
▁most	-1644
▁stand	-1645
▁zgodnie	-1646
▁information	-1647
▁15	-1648
pu	-1649
dziemy	-1650
▁oc	-1651
▁zm	-1652
szego	-1653
▁świ	-1654
▁czym	-1655
▁gl	-1656
▁post	-1657
amp	-1658
▁play	-1659
▁Community	-1660
▁ru	-1661
▁mówi	-1662
ai	-1663
▁rozporządzenia	-1664
▁Pań	-1665
ju	-1666
▁market	-1667
ng	-1668
kim	-1669
▁żad	-1670
▁dziew	-1671
▁meas	-1672
trz	-1673
.2	-1674
▁ist	-1675
▁wiesz	-1676
ict	-1677
▁również	-1678
czu	-1679
▁spot	-1680
era	-1681
▁wyb	-1682
▁accord	-1683
koń	-1684
rew	-1685
▁old	-1686
ital	-1687
ety	-1688
ając	-1689
▁nigdy	-1690
▁Przep	-1691
▁ins	-1692
▁nawet	-1693
land	-1694
▁pomo	-1695
rem	-1696
▁razem	-1697
rę	-1698
cza	-1699
iny	-1700
▁pres	-1701
av	-1702
zn	-1703
▁?	-1704
▁report	-1705
▁tem	-1706
▁Kiedy	-1707
▁Dobrze	-1708
▁trochę	-1709
ara	-1710
skich	-1711
▁znaj	-1712
▁hear	-1713
▁kto	-1714
czas	-1715
▁koń	-1716
fin	-1717
won	-1718
ników	-1719
▁pa	-1720
▁add	-1721
▁big	-1722
▁kobie	-1723
▁Te	-1724
skiego	-1725
▁wys	-1726
ork	-1727
▁Li	-1728
▁każd	-1729
▁another	-1730
owiąz	-1731
▁sit	-1732
▁leg	-1733
gu	-1734
▁bud	-1735
▁quest	-1736
con	-1737
▁case	-1738
▁stay	-1739
▁wiel	-1740
▁int	-1741
▁diffe	-1742
▁wszystkie	-1743
▁Council	-1744
▁head	-1745
▁naprawdę	-1746
arzy	-1747
ution	-1748
▁Parl	-1749
▁niniej	-1750
▁concer	-1751
▁As	-1752
ards	-1753
bior	-1754
▁stat	-1755
ural	-1756
▁można	-1757
▁point	-1758
▁Good	-1759
▁cert	-1760
▁podstaw	-1761
▁przypadku	-1762
▁proszę	-1763
▁Pot	-1764
iew	-1765
isk	-1766
▁rodzin	-1767
▁without	-1768
▁ut	-1769
niesie	-1770
▁człowie	-1771
▁drug	-1772
amięt	-1773
▁wszystkich	-1774
▁tobą	-1775
ready	-1776
▁produkt	-1777
eść	-1778
▁Nic	-1779
▁job	-1780
szed	-1781
▁char	-1782
latego	-1783
▁ce	-1784
▁myśli	-1785
mier	-1786
▁dyre	-1787
bility	-1788
ług	-1789
▁ws	-1790
nios	-1791
▁est	-1792
▁test	-1793
nts	-1794
ora	-1795
▁będę	-1796
▁powiedział	-1797
▁sł	-1798
▁left	-1799
▁11	-1800
ention	-1801
▁understand	-1802
▁coming	-1803
pew	-1804
odź	-1805
▁Chcę	-1806
▁wygląd	-1807
▁0	-1808
less	-1809
▁pana	-1810
▁inv	-1811
▁Masz	-1812
▁el	-1813
ene	-1814
aniz	-1815
▁pracy	-1816
resie	-1817
▁already	-1818
par	-1819
vest	-1820
ma	-1821
▁szy	-1822
kuję	-1823
▁Lu	-1824
▁poss	-1825
als	-1826
rol	-1827
lit	-1828
aliz	-1829
imes	-1830
▁three	-1831
iness	-1832
▁happened	-1833
▁best	-1834
▁wyst	-1835
▁bezpie	-1836
▁ona	-1837
ris	-1838
▁run	-1839
▁Muszę	-1840
ump	-1841
▁Dire	-1842
▁house	-1843
▁wróci	-1844
let	-1845
▁Sk	-1846
▁musi	-1847
▁Maybe	-1848
▁child	-1849
▁następ	-1850
▁wo	-1851
ever	-1852
got	-1853
pi	-1854
▁cho	-1855
.1	-1856
acj	-1857
▁tę	-1858
▁mieć	-1859
▁kontro	-1860
▁mor	-1861
▁30	-1862
▁fami	-1863
ium	-1864
rzą	-1865
▁będą	-1866
ried	-1867
żeli	-1868
▁dziewczy	-1869
nic	-1870
und	-1871
▁stra	-1872
▁szczegól	-1873
▁także	-1874
vers	-1875
▁temu	-1876
▁moje	-1877
▁Teraz	-1878
▁mną	-1879
▁chłop	-1880
▁second	-1881
▁hum	-1882
dzisz	-1883
▁2005	-1884
▁came	-1885
niku	-1886
▁nich	-1887
gether	-1888
▁Dec	-1889
▁includ	-1890
▁provid	-1891
byś	-1892
tak	-1893
▁dw	-1894
▁Pan	-1895
nex	-1896
ację	-1897
ness	-1898
▁Con	-1899
▁miesz	-1900
rong	-1901
licz	-1902
niają	-1903
▁zawsze	-1904
▁wol	-1905
▁star	-1906
atu	-1907
▁dale	-1908
▁Dr	-1909
eniem	-1910
▁dead	-1911
cid	-1912
▁wcz	-1913
▁która	-1914
▁father	-1915
ców	-1916
ird	-1917
▁tru	-1918
uring	-1919
czej	-1920
▁och	-1921
▁each	-1922
▁enough	-1923
ową	-1924
rib	-1925
▁Or	-1926
▁2004	-1927
szej	-1928
▁Sam	-1929
anego	-1930
▁month	-1931
▁else	-1932
▁prom	-1933
▁together	-1934
▁kl	-1935
▁przej	-1936
▁finans	-1937
ger	-1938
▁win	-1939
▁zad	-1940
acyj	-1941
▁str	-1942
▁Ju	-1943
▁ud	-1944
▁isn	-1945
ative	-1946
naj	-1947
▁cor	-1948
▁looking	-1949
urt	-1950
▁róż	-1951
▁Tylko	-1952
▁today	-1953
▁prote	-1954
▁pur	-1955
▁Then	-1956
▁getting	-1957
ram	-1958
▁Two	-1959
▁cie	-1960
▁proje	-1961
iw	-1962
rzu	-1963
łącz	-1964
▁someone	-1965
son	-1966
▁18	-1967
▁pyt	-1968
nąć	-1969
▁Nap	-1970
▁wiele	-1971
ględ	-1972
▁znale	-1973
▁2006	-1974
▁siebie	-1975
▁Prz	-1976
▁tow	-1977
▁Dobra	-1978
▁rel	-1979
ieważ	-1980
▁Komisji	-1981
dze	-1982
▁zapew	-1983
iec	-1984
▁trying	-1985
▁family	-1986
air	-1987
leg	-1988
▁Please	-1989
ason	-1990
▁Już	-1991
ski	-1992
▁waż	-1993
▁włas	-1994
▁At	-1995
alne	-1996
▁jedy	-1997
▁mies	-1998
▁tele	-1999
łuchaj	-2000
ada	-2001
▁hist	-2002
▁many	-2003
peł	-2004
▁Chce	-2005
erg	-2006
dziesz	-2007
▁Union	-2008
▁wrong	-2009
▁nau	-2010
▁hell	-2011
▁State	-2012
▁przedstaw	-2013
owo	-2014
▁dyrekty	-2015
rać	-2016
ific	-2017
▁godzin	-2018
raph	-2019
▁wasn	-2020
▁Przepraszam	-2021
ament	-2022
velop	-2023
▁organ	-2024
▁Zost	-2025
nienie	-2026
▁innych	-2027
yw	-2028
▁daw	-2029
ident	-2030
▁hour	-2031
illi	-2032
▁Wspól	-2033
▁możemy	-2034
▁partic	-2035
come	-2036
▁blo	-2037
nal	-2038
owany	-2039
▁order	-2040
▁Ni	-2041
▁17	-2042
▁Mi	-2043
▁II	-2044
▁real	-2045
kro	-2046
zpie	-2047
▁albo	-2048
▁Nigdy	-2049
▁moim	-2050
▁prób	-2051
▁bit	-2052
▁lek	-2053
▁Chyba	-2054
▁interest	-2055
byt	-2056
▁Directive	-2057
▁Me	-2058
▁ton	-2059
▁mind	-2060
▁zb	-2061
▁stu	-2062
000	-2063
kry	-2064
▁Ob	-2065
▁days	-2066
▁Every	-2067
▁gi	-2068
reak	-2069
▁check	-2070
osed	-2071
▁law	-2072
▁hard	-2073
▁mógł	-2074
ono	-2075
▁kogo	-2076
rani	-2077
▁sto	-2078
▁dziec	-2079
▁stało	-2080
▁fact	-2081
▁miejsce	-2082
cje	-2083
▁zmi	-2084
zyw	-2085
raż	-2086
orze	-2087
▁col	-2088
▁Wszystko	-2089
▁16	-2090
▁cap	-2091
▁Panie	-2092
▁gener	-2093
ib	-2094
▁ek	-2095
▁niego	-2096
ujemy	-2097
óc	-2098
▁Annex	-2099
▁within	-2100
▁particular	-2101
iadom	-2102
lan	-2103
▁mod	-2104
szł	-2105
liz	-2106
ect	-2107
sport	-2108
▁matter	-2109
▁ext	-2110
▁odpowied	-2111
▁pomocy	-2112
▁ref	-2113
ntil	-2114
▁ktoś	-2115
▁both	-2116
ended	-2117
nio	-2118
▁Hej	-2119
▁moja	-2120
▁wart	-2121
▁pun	-2122
▁mother	-2123
▁właśnie	-2124
▁ram	-2125
▁miss	-2126
▁załącz	-2127
▁Tra	-2128
▁panie	-2129
▁współ	-2130
▁dzieci	-2131
▁państwa	-2132
▁!	-2133
▁warun	-2134
▁saw	-2135
▁Chciał	-2136
żej	-2137
▁13	-2138
▁wyj	-2139
działa	-2140
hn	-2141
oss	-2142
▁jesteśmy	-2143
▁Rep	-2144
▁went	-2145
▁room	-2146
anna	-2147
▁bardziej	-2148
arów	-2149
▁ryn	-2150
▁Musimy	-2151
▁invest	-2152
▁remember	-2153
▁dem	-2154
▁odniesie	-2155
▁norm	-2156
▁products	-2157
▁cent	-2158
▁course	-2159
▁działa	-2160
▁14	-2161
▁dow	-2162
▁pret	-2163
gg	-2164
▁fil	-2165
ablis	-2166
▁Właś	-2167
▁means	-2168
▁Ad	-2169
skim	-2170
▁Ex	-2171
▁dod	-2172
▁Pom	-2173
gn	-2174
▁took	-2175
▁important	-2176
▁cra	-2177
▁wal	-2178
▁cond	-2179
▁seen	-2180
iałem	-2181
▁najlep	-2182
gę	-2183
▁uh	-2184
▁Zap	-2185
▁duż	-2186
▁whole	-2187
▁Gdy	-2188
▁przeciw	-2189
zu	-2190
chool	-2191
ateg	-2192
▁mojego	-2193
▁develop	-2194
here	-2195
▁Uni	-2196
▁son	-2197
▁szyb	-2198
▁ludzie	-2199
▁yourself	-2200
pis	-2201
żyć	-2202
chodzi	-2203
aby	-2204
▁few	-2205
aniem	-2206
▁effe	-2207
▁measures	-2208
▁25	-2209
łysz	-2210
▁mart	-2211
▁przyję	-2212
▁stanie	-2213
▁Komisja	-2214
ument	-2215
▁fine	-2216
▁swoje	-2217
▁talking	-2218
rist	-2219
EC	-2220
▁uwa	-2221
jaw	-2222
▁next	-2223
wz	-2224
▁osob	-2225
▁przepis	-2226
▁euro	-2227
▁business	-2228
pa	-2229
low	-2230
▁establis	-2231
ałaś	-2232
▁boy	-2233
▁open	-2234
▁zale	-2235
▁poroz	-2236
▁service	-2237
new	-2238
▁Uh	-2239
▁stud	-2240
ines	-2241
aught	-2242
of	-2243
aną	-2244
odar	-2245
▁Cóż	-2246
▁twój	-2247
▁rozumie	-2248
ros	-2249
▁One	-2250
▁accordance	-2251
▁pi	-2252
▁mał	-2253
▁Członkow	-2254
ised	-2255
▁nice	-2256
▁Because	-2257
▁kilka	-2258
▁different	-2259
iom	-2260
wierdz	-2261
▁against	-2262
▁śmier	-2263
▁certain	-2264
sią	-2265
▁Q	-2266
ciąg	-2267
▁Rob	-2268
▁swe	-2269
ister	-2270
ające	-2271
lement	-2272
▁since	-2273
roż	-2274
▁zg	-2275
tedy	-2276
▁live	-2277
▁seem	-2278
ley	-2279
▁zach	-2280
▁conf	-2281
sty	-2282
▁Powin	-2283
▁póź	-2284
feren	-2285
▁Mogę	-2286
▁zamie	-2287
ries	-2288
▁obs	-2289
▁deal	-2290
▁więk	-2291
▁ochron	-2292
oup	-2293
▁word	-2294
ływ	-2295
▁podej	-2296
▁zawie	-2297
reement	-2298
▁którzy	-2299
▁nadzie	-2300
ari	-2301
▁level	-2302
▁Un	-2303
▁Mamy	-2304
iod	-2305
▁rę	-2306
▁called	-2307
minist	-2308
▁zostać	-2309
▁Kto	-2310
▁hold	-2311
▁least	-2312
ha	-2313
liwe	-2314
▁nią	-2315
▁sprzed	-2316
ral	-2317
▁gosp	-2318
▁rzecz	-2319
▁polity	-2320
omp	-2321
▁ap	-2322
▁ca	-2323
czym	-2324
ienia	-2325
▁uważ	-2326
▁kolej	-2327
▁ret	-2328
▁finan	-2329
oru	-2330
▁Ta	-2331
▁idea	-2332
▁Af	-2333
tnie	-2334
▁szczę	-2335
siębior	-2336
czny	-2337
bezpie	-2338
dzia	-2339
▁Any	-2340
▁high	-2341
▁pozost	-2342
eny	-2343
▁thank	-2344
▁John	-2345
▁account	-2346
▁guess	-2347
▁świat	-2348
▁taki	-2349
▁mojej	-2350
▁pomoc	-2351
ited	-2352
▁będziesz	-2353
mniej	-2354
aliśmy	-2355
▁until	-2356
▁subst	-2357
▁dzię	-2358
▁rodz	-2359
▁rozw	-2360
▁pomóc	-2361
▁treat	-2362
wozd	-2363
▁du	-2364
mawiać	-2365
▁wouldn	-2366
▁ago	-2367
▁zag	-2368
▁były	-2369
▁znaleź	-2370
ks	-2371
ferred	-2372
▁while	-2373
ream	-2374
▁number	-2375
za	-2376
▁kr	-2377
▁dlaczego	-2378
▁dam	-2379
▁heard	-2380
ional	-2381
▁walk	-2382
▁school	-2383
▁change	-2384
ton	-2385
▁ciąg	-2386
ten	-2387
▁OK	-2388
▁pacj	-2389
względ	-2390
▁którym	-2391
itions	-2392
▁clear	-2393
▁compet	-2394
▁working	-2395
▁kim	-2396
▁woman	-2397
▁państw	-2398
▁dep	-2399
▁Some	-2400
br	-2401
ciąż	-2402
▁speci	-2403
ably	-2404
leep	-2405
rowadzi	-2406
▁public	-2407
me	-2408
arze	-2409
ired	-2410
▁fight	-2411
liwości	-2412
szych	-2413
its	-2414
ione	-2415
▁av	-2416
▁men	-2417
▁Zaw	-2418
▁necess	-2419
anej	-2420
▁iść	-2421
cznej	-2422
nam	-2423
▁muszę	-2424
▁bring	-2425
▁dni	-2426
ins	-2427
kcji	-2428
ately	-2429
▁Rady	-2430
▁jeden	-2431
▁maybe	-2432
▁odniesieniu	-2433
wię	-2434
▁wyp	-2435
▁skoń	-2436
▁dobre	-2437
▁Ha	-2438
dziel	-2439
oro	-2440
▁knew	-2441
▁applic	-2442
▁Tu	-2443
kami	-2444
▁męż	-2445
▁fuck	-2446
▁przedsiębior	-2447
ato	-2448
▁życia	-2449
ality	-2450
▁niej	-2451
isions	-2452
▁musisz	-2453
ms	-2454
▁Ten	-2455
▁oko	-2456
ither	-2457
orrow	-2458
cznego	-2459
▁oczy	-2460
▁ustan	-2461
cić	-2462
▁hu	-2463
ekaj	-2464
▁UE	-2465
▁ey	-2466
itor	-2467
▁Tom	-2468
wiście	-2469
▁jednak	-2470
▁taking	-2471
▁poziom	-2472
hes	-2473
ciec	-2474
▁hot	-2475
▁inf	-2476
▁period	-2477
▁control	-2478
▁2003	-2479
▁opin	-2480
▁killed	-2481
▁morning	-2482
▁appro	-2483
▁gospodar	-2484
pital	-2485
▁moją	-2486
ah	-2487
▁Są	-2488
ward	-2489
▁chw	-2490
▁dalej	-2491
▁patie	-2492
cip	-2493
▁pu	-2494
▁Myślę	-2495
▁Wspólnot	-2496
▁beh	-2497
▁having	-2498
▁brother	-2499
▁Here	-2500
▁dwa	-2501
iaj	-2502
oper	-2503
▁samo	-2504
▁wife	-2505
▁dzień	-2506
▁świad	-2507
▁question	-2508
▁wprowadz	-2509
▁wykorzyst	-2510
ska	-2511
▁Moż	-2512
▁prof	-2513
agraph	-2514
▁wymag	-2515
▁pacjent	-2516
anim	-2517
▁sytu	-2518
ross	-2519
▁hope	-2520
rzymać	-2521
▁following	-2522
jech	-2523
▁Will	-2524
▁wykon	-2525
▁pay	-2526
▁peł	-2527
▁2007	-2528
alf	-2529
liście	-2530
oy	-2531
▁taken	-2532
▁tygod	-2533
▁actually	-2534
ole	-2535
▁24	-2536
dzwon	-2537
ujące	-2538
▁Cześć	-2539
▁ready	-2540
med	-2541
ota	-2542
▁Daj	-2543
▁fund	-2544
▁przes	-2545
▁przyja	-2546
ryw	-2547
▁szko	-2548
wyk	-2549
▁support	-2550
▁wiedzieć	-2551
▁dia	-2552
rawdę	-2553
▁dist	-2554
▁lepiej	-2555
▁uwzględ	-2556
▁administ	-2557
nu	-2558
łoż	-2559
▁human	-2560
uf	-2561
ica	-2562
łat	-2563
▁ve	-2564
▁gru	-2565
▁dziś	-2566
▁hurt	-2567
▁przem	-2568
uss	-2569
▁dzis	-2570
▁die	-2571
świad	-2572
▁With	-2573
war	-2574
▁Ke	-2575
ense	-2576
fect	-2577
odni	-2578
▁Mój	-2579
▁sim	-2580
▁risk	-2581
▁cur	-2582
lić	-2583
tain	-2584
▁kap	-2585
▁yet	-2586
▁gotta	-2587
▁Chcesz	-2588
pr	-2589
▁Naj	-2590
▁części	-2591
▁wszyscy	-2592
▁necessary	-2593
▁zbyt	-2594
▁possible	-2595
ysł	-2596
▁equ	-2597
▁przew	-2598
▁sprawozd	-2599
▁pass	-2600
▁rad	-2601
▁Repub	-2602
▁chyba	-2603
▁długo	-2604
▁provided	-2605
oł	-2606
▁wnios	-2607
▁zakresie	-2608
lig	-2609
rzeć	-2610
▁regard	-2611
▁ozna	-2612
▁stąd	-2613
▁moment	-2614
▁samoch	-2615
ts	-2616
▁free	-2617
▁prawdzi	-2618
▁wszystkim	-2619
▁Br	-2620
araz	-2621
ency	-2622
order	-2623
▁alone	-2624
▁pój	-2625
conom	-2626
▁baby	-2627
▁pretty	-2628
▁znaczy	-2629
śle	-2630
iłem	-2631
ster	-2632
▁dobry	-2633
▁Dziękuję	-2634
▁defin	-2635
uth	-2636
▁umie	-2637
szedł	-2638
▁której	-2639
ased	-2640
▁Naw	-2641
wania	-2642
▁mater	-2643
owana	-2644
▁Musisz	-2645
▁reason	-2646
żą	-2647
▁val	-2648
▁wam	-2649
▁woj	-2650
▁będziemy	-2651
▁przyjacie	-2652
▁result	-2653
▁zastos	-2654
▁kró	-2655
orth	-2656
▁Zro	-2657
▁jedno	-2658
▁ustal	-2659
▁ps	-2660
▁Unii	-2661
▁months	-2662
rot	-2663
anym	-2664
▁dop	-2665
▁Możesz	-2666
ung	-2667
▁aid	-2668
▁Kt	-2669
owis	-2670
▁haven	-2671
▁Dad	-2672
▁far	-2673
▁słu	-2674
▁regul	-2675
▁wcześ	-2676
▁został	-2677
▁Dzięki	-2678
▁właści	-2679
ield	-2680
▁soon	-2681
▁nadzieję	-2682
yl	-2683
anu	-2684
czych	-2685
ropri	-2686
▁Have	-2687
▁chwil	-2688
czeństwa	-2689
▁referred	-2690
▁informacji	-2691
arcz	-2692
▁Pon	-2693
▁break	-2694
▁wanna	-2695
▁obowiąz	-2696
▁kry	-2697
▁spotk	-2698
▁body	-2699
łow	-2700
▁pog	-2701
ering	-2702
▁posz	-2703
▁twoje	-2704
nek	-2705
▁Bra	-2706
▁dire	-2707
uation	-2708
uty	-2709
▁dowie	-2710
▁heart	-2711
omin	-2712
vant	-2713
▁Char	-2714
▁sign	-2715
▁exper	-2716
▁miast	-2717
owanych	-2718
sw	-2719
▁31	-2720
▁friends	-2721
▁exc	-2722
ling	-2723
▁Har	-2724
▁air	-2725
▁sob	-2726
▁tom	-2727
▁zaj	-2728
▁cięż	-2729
ject	-2730
ciała	-2731
▁once	-2732
▁organiz	-2733
ote	-2734
▁Ab	-2735
▁Cl	-2736
alth	-2737
ścia	-2738
atkow	-2739
▁lead	-2740
▁drink	-2741
▁Pat	-2742
▁Chodź	-2743
▁wiecz	-2744
koj	-2745
ouble	-2746
ienie	-2747
▁ź	-2748
▁sho	-2749
▁Wait	-2750
▁less	-2751
▁country	-2752
▁którego	-2753
hip	-2754
▁turn	-2755
▁myself	-2756
▁implement	-2757
ując	-2758
▁Pani	-2759
▁skład	-2760
ding	-2761
vern	-2762
▁maj	-2763
urity	-2764
▁Nawet	-2765
▁incre	-2766
▁Wygląd	-2767
▁la	-2768
▁kol	-2769
▁adop	-2770
mu	-2771
ród	-2772
▁pap	-2773
▁Boże	-2774
▁powinien	-2775
ili	-2776
▁Um	-2777
onego	-2778
▁cały	-2779
▁gone	-2780
▁exact	-2781
▁Pe	-2782
▁dad	-2783
▁Christ	-2784
▁saying	-2785
▁Powiedz	-2786
▁require	-2787
iła	-2788
por	-2789
▁Ne	-2790
▁death	-2791
▁EUR	-2792
▁mił	-2793
▁Man	-2794
▁odd	-2795
▁il	-2796
▁These	-2797
▁społe	-2798
AT	-2799
▁able	-2800
▁strony	-2801
▁ponieważ	-2802
▁22	-2803
▁zarz	-2804
▁party	-2805
▁water	-2806
▁anyone	-2807
▁listen	-2808
▁21	-2809
▁Państwa	-2810
ti	-2811
uc	-2812
▁move	-2813
▁ryzy	-2814
ps	-2815
▁lost	-2816
▁blood	-2817
▁takiego	-2818
ash	-2819
atch	-2820
ified	-2821
▁musimy	-2822
▁środków	-2823
▁ucz	-2824
ounds	-2825
▁2009	-2826
▁dziw	-2827
▁zwie	-2828
▁decyzji	-2829
yśl	-2830
▁ramach	-2831
bably	-2832
▁light	-2833
▁zł	-2834
▁mag	-2835
▁rules	-2836
▁Wszyscy	-2837
live	-2838
▁Ona	-2839
▁Potrzeb	-2840
oń	-2841
wia	-2842
czna	-2843
▁Jack	-2844
▁dużo	-2845
bar	-2846
ics	-2847
▁lab	-2848
▁2008	-2849
▁couldn	-2850
kra	-2851
▁mess	-2852
▁sleep	-2853
▁wiadom	-2854
uck	-2855
orem	-2856
▁Ser	-2857
▁niekt	-2858
ena	-2859
ying	-2860
▁Mrs	-2861
▁uwie	-2862
ER	-2863
▁Kon	-2864
▁ens	-2865
▁sil	-2866
▁powodu	-2867
arn	-2868
encji	-2869
▁spok	-2870
▁power	-2871
▁wants	-2872
fik	-2873
▁100	-2874
▁robić	-2875
▁dotyczące	-2876
fon	-2877
▁cr	-2878
side	-2879
▁Pres	-2880
▁financial	-2881
ON	-2882
▁Koch	-2883
▁obec	-2884
▁watch	-2885
▁Naprawdę	-2886
lę	-2887
ler	-2888
▁Ge	-2889
▁date	-2890
owałem	-2891
the	-2892
stru	-2893
where	-2894
▁appropri	-2895
▁zobaczyć	-2896
ądze	-2897
▁allow	-2898
▁dostęp	-2899
▁twoja	-2900
▁wtedy	-2901
▁jakieś	-2902
alnie	-2903
iament	-2904
▁close	-2905
▁happy	-2906
▁dzieje	-2907
▁bie	-2908
▁disc	-2909
▁read	-2910
▁okres	-2911
▁interes	-2912
▁national	-2913
▁Europejskiej	-2914
ala	-2915
▁New	-2916
▁Tell	-2917
owever	-2918
▁Right	-2919
▁chance	-2920
▁50	-2921
▁Hi	-2922
ail	-2923
lin	-2924
▁nami	-2925
▁activ	-2926
▁hours	-2927
▁przet	-2928
jęcia	-2929
ających	-2930
▁Thanks	-2931
▁comple	-2932
▁postęp	-2933
▁Gu	-2934
wali	-2935
▁Wit	-2936
▁cost	-2937
▁Jesteśmy	-2938
ants	-2939
nicy	-2940
▁hon	-2941
▁during	-2942
▁kie	-2943
▁loc	-2944
▁safe	-2945
ujących	-2946
▁needs	-2947
▁swoją	-2948
▁tonight	-2949
▁dot	-2950
▁tobie	-2951
działam	-2952
▁cannot	-2953
▁znaleźć	-2954
bers	-2955
tkow	-2956
▁Gre	-2957
▁food	-2958
▁knows	-2959
▁istnie	-2960
iet	-2961
łod	-2962
▁Gr	-2963
▁Pa	-2964
rzyć	-2965
▁zostaw	-2966
cem	-2967
west	-2968
▁pok	-2969
▁true	-2970
oż	-2971
rost	-2972
tern	-2973
light	-2974
▁Hell	-2975
▁offic	-2976
owała	-2977
▁data	-2978
▁speak	-2979
ień	-2980
lim	-2981
▁Op	-2982
▁says	-2983
illion	-2984
▁kogoś	-2985
▁histor	-2986
▁pamięt	-2987
▁transport	-2988
▁es	-2989
▁pas	-2990
▁podczas	-2991
.,	-2992
byw	-2993
tee	-2994
.200	-2995
▁trzy	-2996
ars	-2997
cing	-2998
unku	-2999
niśmy	-3000
▁late	-3001
▁chang	-3002
▁potem	-3003
tw	-3004
ug	-3005
arza	-3006
yd	-3007
raf	-3008
▁Mom	-3009
▁oni	-3010
stwie	-3011
▁23	-3012
▁bea	-3013
▁making	-3014
▁present	-3015
▁paragraph	-3016
▁fig	-3017
▁mem	-3018
▁limit	-3019
▁minutes	-3020
▁Decision	-3021
▁authorities	-3022
▁emp	-3023
▁List	-3024
▁prawa	-3025
▁współp	-3026
▁działania	-3027
port	-3028
tyku	-3029
▁wond	-3030
▁econom	-3031
▁miejscu	-3032
▁process	-3033
gan	-3034
cjon	-3035
▁side	-3036
ination	-3037
eth	-3038
ration	-3039
▁Niech	-3040
▁given	-3041
▁table	-3042
▁temat	-3043
▁thinking	-3044
outh	-3045
▁Był	-3046
▁Take	-3047
ets	-3048
lub	-3049
inal	-3050
pect	-3051
▁fore	-3052
▁asked	-3053
▁pozwo	-3054
▁young	-3055
cks	-3056
nos	-3057
▁Ph	-3058
▁Her	-3059
▁Pet	-3060
▁kar	-3061
▁wej	-3062
▁sent	-3063
▁ucie	-3064
IN	-3065
łą	-3066
miot	-3067
▁wst	-3068
▁kids	-3069
▁state	-3070
▁produktów	-3071
▁Ed	-3072
ison	-3073
nolog	-3074
niki	-3075
▁rece	-3076
▁sing	-3077
oną	-3078
▁tą	-3079
▁zanim	-3080
ept	-3081
▁Bog	-3082
▁His	-3083
▁gave	-3084
▁tyle	-3085
▁dyrektywy	-3086
gie	-3087
ądź	-3088
▁uro	-3089
▁inne	-3090
▁pain	-3091
▁stru	-3092
▁later	-3093
AN	-3094
▁Ro	-3095
▁See	-3096
▁Spraw	-3097
▁twoim	-3098
▁wskaz	-3099
▁później	-3100
▁everyone	-3101
▁conditions	-3102
▁chwi	-3103
▁colle	-3104
▁razie	-3105
▁worry	-3106
▁intern	-3107
▁propos	-3108
jed	-3109
▁rozm	-3110
▁zroz	-3111
▁including	-3112
gii	-3113
▁four	-3114
▁wasz	-3115
▁tomorrow	-3116
▁concerned	-3117
▁kup	-3118
▁door	-3119
▁mist	-3120
▁nied	-3121
▁Parliament	-3122
inte	-3123
▁pewno	-3124
▁przyjaci	-3125
▁cou	-3126
▁którą	-3127
▁makes	-3128
▁manag	-3129
▁poważ	-3130
▁dlatego	-3131
sto	-3132
▁nocy	-3133
▁super	-3134
▁respect	-3135
ajem	-3136
▁fak	-3137
yment	-3138
▁wcześniej	-3139
▁Dok	-3140
▁Praw	-3141
▁phone	-3142
▁trust	-3143
▁Bardzo	-3144
▁Dlatego	-3145
▁countries	-3146
orn	-3147
dzial	-3148
▁takich	-3149
▁prowadz	-3150
▁członkowskie	-3151
▁cy	-3152
pped	-3153
▁Gra	-3154
▁fav	-3155
▁głos	-3156
▁exactly	-3157
ąt	-3158
▁Su	-3159
czył	-3160
ajcie	-3161
▁respons	-3162
rez	-3163
utro	-3164
ining	-3165
▁truth	-3166
▁zabaw	-3167
▁Właśnie	-3168
▁ostatni	-3169
ef	-3170
▁ed	-3171
ases	-3172
iful	-3173
ract	-3174
▁dobra	-3175
jąć	-3176
encie	-3177
▁pięk	-3178
▁szczególności	-3179
rów	-3180
ider	-3181
▁rację	-3182
▁miejsca	-3183
▁appropriate	-3184
rają	-3185
▁Pos	-3186
▁ograni	-3187
▁otrzym	-3188
▁exam	-3189
▁podstawie	-3190
▁bur	-3191
▁ode	-3192
▁obsz	-3193
▁children	-3194
▁specific	-3195
onym	-3196
unch	-3197
▁abs	-3198
▁anim	-3199
▁answ	-3200
idence	-3201
▁termin	-3202
óch	-3203
▁Min	-3204
▁2002	-3205
▁rynku	-3206
▁probably	-3207
▁przeprowadz	-3208
jęt	-3209
arch	-3210
▁sig	-3211
▁dzisiaj	-3212
▁EW	-3213
▁rz	-3214
▁Coś	-3215
▁town	-3216
▁zdrow	-3217
ekty	-3218
ffic	-3219
▁Zam	-3220
▁miała	-3221
▁nadal	-3222
▁mur	-3223
▁book	-3224
nością	-3225
utiful	-3226
▁Czemu	-3227
▁serious	-3228
▁decision	-3229
dza	-3230
▁hit	-3231
▁normal	-3232
▁pierwszy	-3233
▁Tw	-3234
▁gun	-3235
owiad	-3236
▁grow	-3237
▁danych	-3238
▁supposed	-3239
▁Ł	-3240
cis	-3241
gar	-3242
▁contin	-3243
▁contain	-3244
99	-3245
jaś	-3246
▁tur	-3247
▁line	-3248
▁yeah	-3249
▁zasad	-3250
▁posiad	-3251
lik	-3252
▁Sc	-3253
▁aż	-3254
reed	-3255
▁force	-3256
▁hands	-3257
▁kwest	-3258
▁product	-3259
ney	-3260
▁Qu	-3261
liby	-3262
▁dest	-3263
▁nazw	-3264
▁zrob	-3265
▁apply	-3266
▁class	-3267
ską	-3268
iało	-3269
tery	-3270
▁doc	-3271
▁vis	-3272
▁bene	-3273
▁mniej	-3274
▁miesią	-3275
▁X	-3276
iony	-3277
lient	-3278
▁trud	-3279
dzenie	-3280
▁Sorry	-3281
▁pracow	-3282
▁urz	-3283
▁osiąg	-3284
▁robisz	-3285
com	-3286
ront	-3287
▁żebyś	-3288
▁kobiet	-3289
unt	-3290
ages	-3291
▁sobą	-3292
kument	-3293
▁jakiś	-3294
▁Jeżeli	-3295
stycz	-3296
▁jaki	-3297
▁lecz	-3298
▁basis	-3299
ances	-3300
▁żyje	-3301
▁Zawsze	-3302
▁ensure	-3303
erm	-3304
ktu	-3305
ude	-3306
kuje	-3307
▁EEC	-3308
▁powinny	-3309
▁Że	-3310
▁Ind	-3311
▁sprawa	-3312
▁telefon	-3313
▁przyjaciół	-3314
raid	-3315
▁ple	-3316
▁pół	-3317
▁obej	-3318
▁redu	-3319
▁takim	-3320
wał	-3321
▁Pew	-3322
▁company	-3323
▁provisions	-3324
ini	-3325
ktor	-3326
▁otw	-3327
▁tot	-3328
▁wed	-3329
▁powinna	-3330
óz	-3331
ięć	-3332
iłeś	-3333
koju	-3334
▁Che	-3335
ymore	-3336
▁Listen	-3337
▁common	-3338
▁Of	-3339
▁EWG	-3340
▁począ	-3341
▁build	-3342
▁ident	-3343
▁Parlament	-3344
▁mis	-3345
▁2001	-3346
▁głów	-3347
▁konie	-3348
▁times	-3349
▁ojciec	-3350
▁Zna	-3351
▁wid	-3352
▁kons	-3353
▁rele	-3354
niądze	-3355
▁przyp	-3356
ES	-3357
▁Like	-3358
▁game	-3359
▁pick	-3360
▁Myśli	-3361
▁either	-3362
▁minute	-3363
▁wygląda	-3364
cyd	-3365
▁Zd	-3366
szel	-3367
▁lata	-3368
▁twojej	-3369
▁uz	-3370
▁Każ	-3371
band	-3372
▁Miss	-3373
urther	-3374
▁jeżeli	-3375
▁anymore	-3376
▁zostały	-3377
liż	-3378
ined	-3379
▁Mat	-3380
▁Nad	-3381
▁głu	-3382
▁full	-3383
ending	-3384
▁dwóch	-3385
▁monitor	-3386
▁technolog	-3387
▁uni	-3388
▁taka	-3389
▁zamk	-3390
alnych	-3391
▁energ	-3392
▁stuff	-3393
▁office	-3394
▁wspólnot	-3395
nes	-3396
▁Fin	-3397
▁pozy	-3398
▁przezna	-3399
▁mg	-3400
▁Pop	-3401
▁Czas	-3402
▁okaz	-3403
mę	-3404
nać	-3405
óki	-3406
łap	-3407
rą	-3408
▁fall	-3409
chodzą	-3410
▁powst	-3411
▁przesz	-3412
wnę	-3413
▁bed	-3414
obody	-3415
▁czasie	-3416
▁przyszł	-3417
gr	-3418
alaz	-3419
itet	-3420
ically	-3421
▁podob	-3422
wist	-3423
▁third	-3424
▁Commit	-3425
▁inside	-3426
ern	-3427
▁Mc	-3428
fikow	-3429
szczę	-3430
▁chor	-3431
▁innego	-3432
▁chłopak	-3433
▁27	-3434
▁jo	-3435
kiego	-3436
▁looks	-3437
▁środki	-3438
▁En	-3439
▁kaw	-3440
▁Mich	-3441
▁luck	-3442
▁osób	-3443
▁sens	-3444
▁dokład	-3445
▁patients	-3446
▁ile	-3447
▁niep	-3448
▁group	-3449
▁afraid	-3450
▁daught	-3451
▁security	-3452
▁aw	-3453
most	-3454
orge	-3455
▁Mon	-3456
▁area	-3457
▁szans	-3458
▁police	-3459
▁sprawy	-3460
rowadzić	-3461
ered	-3462
kiej	-3463
▁Our	-3464
▁sol	-3465
▁shot	-3466
▁accept	-3467
ification	-3468
kod	-3469
ove	-3470
vir	-3471
nowu	-3472
owaniu	-3473
wnętrz	-3474
▁związku	-3475
▁wartości	-3476
den	-3477
imum	-3478
▁cut	-3479
▁fix	-3480
▁realiz	-3481
▁została	-3482
lus	-3483
▁huh	-3484
▁poś	-3485
▁fire	-3486
szenia	-3487
szenie	-3488
asne	-3489
▁mili	-3490
▁amount	-3491
lor	-3492
▁beautiful	-3493
tek	-3494
▁bł	-3495
▁cen	-3496
▁Give	-3497
▁nasze	-3498
▁zostanie	-3499
odów	-3500
ójrz	-3501
▁opp	-3502
▁sca	-3503
▁sek	-3504
▁znalaz	-3505
▁partner	-3506
▁noc	-3507
▁pieniądze	-3508
▁dotyczących	-3509
▁;	-3510
▁rev	-3511
▁mówić	-3512
▁polic	-3513
▁szybko	-3514
▁Dan	-3515
▁drz	-3516
▁eat	-3517
▁eksp	-3518
▁mocy	-3519
▁past	-3520
▁mogła	-3521
▁Słuchaj	-3522
▁request	-3523
▁informacje	-3524
kań	-3525
▁stosowania	-3526
af	-3527
niem	-3528
onej	-3529
▁Got	-3530
▁fut	-3531
▁wła	-3532
vious	-3533
▁Oczy	-3534
▁conc	-3535
▁kontroli	-3536
▁chwilę	-3537
▁porozmawiać	-3538
ogi	-3539
itive	-3540
nione	-3541
▁Moja	-3542
▁wych	-3543
▁invol	-3544
▁zwięk	-3545
▁export	-3546
▁health	-3547
▁President	-3548
kom	-3549
rob	-3550
czną	-3551
▁Joe	-3552
▁nar	-3553
▁non	-3554
▁wish	-3555
nikiem	-3556
▁five	-3557
▁Somet	-3558
▁access	-3559
▁czyn	-3560
▁przygot	-3561
▁special	-3562
▁tar	-3563
▁Amer	-3564
▁Możemy	-3565
mm	-3566
ged	-3567
▁40	-3568
aila	-3569
▁Frank	-3570
▁indic	-3571
▁myślisz	-3572
óg	-3573
lar	-3574
▁Nikt	-3575
▁bank	-3576
▁chol	-3577
▁half	-3578
▁koszt	-3579
EN	-3580
dził	-3581
▁Ben	-3582
idual	-3583
▁ship	-3584
▁story	-3585
▁wciąż	-3586
▁wykaz	-3587
▁started	-3588
app	-3589
ieniu	-3590
▁Jego	-3591
▁issu	-3592
▁Treat	-3593
▁myślę	-3594
▁wypad	-3595
▁nap	-3596
▁ste	-3597
▁stre	-3598
usband	-3599
▁facet	-3600
▁wpływ	-3601
▁brought	-3602
▁dokument	-3603
▁29	-3604
▁Cap	-3605
▁Jam	-3606
▁deb	-3607
▁services	-3608
cznym	-3609
▁Hello	-3610
▁siost	-3611
▁twoją	-3612
▁zapom	-3613
▁czegoś	-3614
▁rodzaj	-3615
▁Committee	-3616
▁therefore	-3617
▁Nale	-3618
▁wyjaś	-3619
ael	-3620
iar	-3621
▁cze	-3622
▁przyw	-3623
▁Ah	-3624
▁cover	-3625
▁ochrony	-3626
▁application	-3627
cle	-3628
rum	-3629
win	-3630
czone	-3631
▁kapit	-3632
▁uwagę	-3633
▁dziecko	-3634
arly	-3635
▁Col	-3636
▁mężczy	-3637
wal	-3638
▁Ci	-3639
iona	-3640
▁swoim	-3641
▁bezpieczeństwa	-3642
ste	-3643
owod	-3644
▁cór	-3645
▁ran	-3646
▁dream	-3647
▁women	-3648
▁million	-3649
▁development	-3650
si	-3651
▁sus	-3652
▁speł	-3653
▁view	-3654
▁pokaz	-3655
isation	-3656
▁proces	-3657
bia	-3658
▁Per	-3659
▁brz	-3660
ption	-3661
▁jedn	-3662
▁orig	-3663
▁skar	-3664
▁doctor	-3665
▁zrobił	-3666
spe	-3667
▁god	-3668
▁zob	-3669
widzi	-3670
▁sweet	-3671
▁govern	-3672
▁musiał	-3673
▁record	-3674
▁odpowiedzial	-3675
▁requirements	-3676
IS	-3677
ones	-3678
▁Par	-3679
▁Ste	-3680
▁low	-3681
▁yes	-3682
arczy	-3683
▁jaką	-3684
▁team	-3685
▁couple	-3686
▁dzięki	-3687
▁daughter	-3688
▁swoich	-3689
▁trouble	-3690
orą	-3691
▁1,	-3692
▁Jim	-3693
▁zde	-3694
▁mine	-3695
▁Bez	-3696
▁cir	-3697
▁Jeszcze	-3698
róż	-3699
stą	-3700
alny	-3701
mitted	-3702
▁small	-3703
▁badania	-3704
▁husband	-3705
▁situation	-3706
owę	-3707
▁Sy	-3708
ający	-3709
▁ener	-3710
▁wszel	-3711
▁każdego	-3712
▁investig	-3713
mer	-3714
▁Ho	-3715
ceed	-3716
head	-3717
▁eyes	-3718
▁mowa	-3719
▁pare	-3720
▁exist	-3721
▁koniec	-3722
▁działal	-3723
▁właściw	-3724
II	-3725
wiet	-3726
▁pien	-3727
▁sche	-3728
▁byłem	-3729
▁psych	-3730
▁quite	-3731
interes	-3732
▁sprawę	-3733
▁przekaz	-3734
▁et	-3735
fort	-3736
▁priv	-3737
awiają	-3738
ressed	-3739
▁mówią	-3740
▁trzeba	-3741
",	-3742
▁28	-3743
▁sta	-3744
lcome	-3745
▁easy	-3746
▁poza	-3747
▁crazy	-3748
▁pomysł	-3749
▁zmieni	-3750
▁europej	-3751
kar	-3752
▁ak	-3753
rząt	-3754
▁Ost	-3755
▁licz	-3756
▁nimi	-3757
▁mieszk	-3758
noś	-3759
rzeg	-3760
▁dor	-3761
▁repres	-3762
▁wyłącz	-3763
ąż	-3764
ater	-3765
cież	-3766
roni	-3767
vent	-3768
zywa	-3769
▁bym	-3770
▁sex	-3771
narod	-3772
▁1999	-3773
rzymaj	-3774
▁rozwo	-3775
▁zakoń	-3776
▁oznacza	-3777
ats	-3778
▁twojego	-3779
for	-3780
▁ide	-3781
czyna	-3782
▁land	-3783
▁razy	-3784
▁numer	-3785
oke	-3786
▁Będę	-3787
▁died	-3788
▁indust	-3789
▁popraw	-3790
▁procedure	-3791
▁kur	-3792
▁stw	-3793
atory	-3794
▁jednym	-3795
used	-3796
▁imię	-3797
ctions	-3798
▁grant	-3799
▁prawo	-3800
▁availa	-3801
▁waiting	-3802
▁zainteres	-3803
atem	-3804
szyć	-3805
ters	-3806
▁wspom	-3807
▁miesię	-3808
▁outside	-3809
▁Wspólnoty	-3810
▁pacjentów	-3811
wną	-3812
▁film	-3813
ential	-3814
puszcz	-3815
selves	-3816
▁inwest	-3817
▁though	-3818
lf	-3819
val	-3820
▁Cie	-3821
▁wod	-3822
▁nikt	-3823
▁czerw	-3824
▁prior	-3825
ference	-3826
▁production	-3827
▁Mart	-3828
▁future	-3829
▁morder	-3830
▁telling	-3831
anę	-3832
ges	-3833
oli	-3834
ties	-3835
▁syn	-3836
▁komp	-3837
liwość	-3838
▁dokon	-3839
▁końcu	-3840
▁muszą	-3841
▁pract	-3842
bu	-3843
▁2000	-3844
▁gets	-3845
-1	-3846
raź	-3847
odob	-3848
▁Sir	-3849
▁dog	-3850
dzimy	-3851
▁shit	-3852
▁Członkowskie	-3853
"?	-3854
ria	-3855
▁--	-3856
▁aren	-3857
▁fast	-3858
ibility	-3859
najmniej	-3860
▁zadzwon	-3861
▁complete	-3862
▁writ	-3863
▁swojego	-3864
▁addition	-3865
-2	-3866
będ	-3867
erv	-3868
▁six	-3869
▁hate	-3870
utions	-3871
▁alive	-3872
▁front	-3873
▁assess	-3874
▁działań	-3875
▁świecie	-3876
▁załączniku	-3877
łów	-3878
czki	-3879
muje	-3880
▁Pol	-3881
▁dri	-3882
▁pal	-3883
▁step	-3884
▁known	-3885
▁moich	-3886
▁poprze	-3887
▁Oczywiście	-3888
▁Och	-3889
▁Ktoś	-3890
▁cust	-3891
▁mech	-3892
▁naszych	-3893
▁whether	-3894
bę	-3895
▁ban	-3896
▁pil	-3897
▁Lord	-3898
▁panu	-3899
▁prin	-3900
▁niniejszego	-3901
racy	-3902
▁Mad	-3903
▁mov	-3904
ownie	-3905
▁Bill	-3906
▁Cent	-3907
dzię	-3908
iego	-3909
ścić	-3910
ience	-3911
▁wyją	-3912
▁wywo	-3913
▁general	-3914
▁Kim	-3915
▁Uważ	-3916
▁nego	-3917
▁region	-3918
▁married	-3919
czyn	-3920
▁Dam	-3921
▁Pewnie	-3922
▁become	-3923
▁udział	-3924
▁natural	-3925
SA	-3926
ism	-3927
iałam	-3928
▁opie	-3929
działeś	-3930
▁Pamięt	-3931
▁przywo	-3932
▁secret	-3933
▁kochanie	-3934
wić	-3935
▁tou	-3936
▁news	-3937
odniczą	-3938
▁jednego	-3939
gry	-3940
▁ję	-3941
nict	-3942
▁dra	-3943
friend	-3944
▁pracę	-3945
▁energy	-3946
▁remain	-3947
ott	-3948
▁Em	-3949
ring	-3950
▁type	-3951
▁wysok	-3952
▁behind	-3953
▁cooper	-3954
▁Myślisz	-3955
▁zamierz	-3956
łud	-3957
▁Fe	-3958
lica	-3959
czysz	-3960
▁weeks	-3961
▁każdym	-3962
▁zarządz	-3963
nią	-3964
▁1.	-3965
wien	-3966
▁ain	-3967
▁łat	-3968
▁chwili	-3969
▁living	-3970
▁niektór	-3971
:00	-3972
▁Act	-3973
▁nak	-3974
▁odz	-3975
aczej	-3976
vered	-3977
▁swój	-3978
▁comes	-3979
▁upraw	-3980
▁kiedyś	-3981
▁wymien	-3982
▁However	-3983
▁perfect	-3984
▁zobowiąz	-3985
▁agreement	-3986
ped	-3987
eder	-3988
▁ogól	-3989
▁provide	-3990
reg	-3991
zyd	-3992
▁Im	-3993
▁def	-3994
▁sym	-3995
▁2010	-3996
▁laid	-3997
▁port	-3998
▁answer	-3999
▁prepar	-4000
▁wonder	-4001
▁Michael	-4002
oms	-4003
óre	-4004
▁26	-4005
czymy	-4006
▁further	-4007
▁wro	-4008
ionych	-4009
▁expla	-4010
▁jutro	-4011
▁almost	-4012
▁meeting	-4013
▁economic	-4014
▁available	-4015
▁mil	-4016
▁tre	-4017
anger	-4018
▁Does	-4019
▁tried	-4020
▁wielu	-4021
▁forget	-4022
uwa	-4023
iesz	-4024
▁Part	-4025
dzieli	-4026
umping	-4027
▁przer	-4028
▁longer	-4029
▁Agreement	-4030
▁producent	-4031
ush	-4032
▁rol	-4033
owali	-4034
▁2011	-4035
▁city	-4036
▁ksią	-4037
▁wzią	-4038
▁część	-4039
▁całkow	-4040
ee	-4041
aps	-4042
ham	-4043
uma	-4044
▁TH	-4045
▁Zoba	-4046
▁każdy	-4047
▁swojej	-4048
▁przeciwko	-4049
▁Ry	-4050
▁Wyd	-4051
▁farm	-4052
onment	-4053
▁spokój	-4054
▁El	-4055
▁uzy	-4056
alent	-4057
▁młod	-4058
▁along	-4059
▁medic	-4060
▁Treaty	-4061
▁jedynie	-4062
łac	-4063
adać	-4064
czyt	-4065
orów	-4066
work	-4067
kować	-4068
▁śmie	-4069
▁evidence	-4070
bs	-4071
cym	-4072
▁fis	-4073
▁wind	-4074
▁Would	-4075
▁creat	-4076
▁price	-4077
▁dodatkow	-4078
▁miesięcy	-4079
▁ła	-4080
▁Skąd	-4081
▁using	-4082
▁Przest	-4083
▁Przykro	-4084
▁systemu	-4085
żę	-4086
dop	-4087
arth	-4088
▁After	-4089
▁policy	-4090
▁proper	-4091
▁questions	-4092
rót	-4093
ługi	-4094
▁sch	-4095
▁komu	-4096
▁kłam	-4097
▁hotel	-4098
▁utrzym	-4099
▁Dav	-4100
▁Jes	-4101
▁mot	-4102
▁press	-4103
▁George	-4104
▁Należy	-4105
▁pewien	-4106
▁instytu	-4107
OR	-4108
▁occ	-4109
▁Stop	-4110
▁obje	-4111
entlem	-4112
▁jedną	-4113
▁Jednak	-4114
▁mówisz	-4115
▁powinniśmy	-4116
iti	-4117
vil	-4118
▁elekt	-4119
▁specj	-4120
▁zabić	-4121
▁życiu	-4122
▁attack	-4123
▁znajdu	-4124
sa	-4125
glę	-4126
otę	-4127
▁La	-4128
airs	-4129
iłam	-4130
ured	-4131
▁sal	-4132
▁ustaw	-4133
▁treatment	-4134
▁protection	-4135
adę	-4136
vin	-4137
▁Car	-4138
▁hos	-4139
▁jud	-4140
jęcie	-4141
▁drive	-4142
▁Charlie	-4143
▁standard	-4144
ysk	-4145
▁Mor	-4146
▁bag	-4147
▁nag	-4148
czony	-4149
pierw	-4150
▁ciągu	-4151
▁seems	-4152
▁subject	-4153
▁rozporządzenie	-4154
oud	-4155
▁da	-4156
lish	-4157
▁mas	-4158
▁zni	-4159
▁ojca	-4160
▁Gener	-4161
▁corre	-4162
▁możliwe	-4163
▁rozwiąz	-4164
▁everybody	-4165
▁represent	-4166
tów	-4167
fied	-4168
▁Zab	-4169
bierz	-4170
▁emplo	-4171
▁protect	-4172
hic	-4173
▁din	-4174
▁kra	-4175
▁stary	-4176
działaś	-4177
▁Będzie	-4178
kup	-4179
jest	-4180
▁begin	-4181
▁szczęśli	-4182
ache	-4183
oraj	-4184
▁Was	-4185
ologi	-4186
▁języ	-4187
▁szcz	-4188
▁recei	-4189
▁Komitet	-4190
pl	-4191
vis	-4192
cenia	-4193
▁Stan	-4194
▁krwi	-4195
▁wrac	-4196
czekaj	-4197
▁Wygląda	-4198
ależ	-4199
▁typ	-4200
▁wit	-4201
▁naszej	-4202
▁current	-4203
vironment	-4204
set	-4205
▁gaz	-4206
aving	-4207
▁save	-4208
▁vict	-4209
▁wzglę	-4210
▁wydaje	-4211
▁chciała	-4212
▁żadnych	-4213
▁przykład	-4214
sł	-4215
zi	-4216
▁60	-4217
aste	-4218
▁sister	-4219
uter	-4220
▁opu	-4221
arant	-4222
rudnia	-4223
▁drzwi	-4224
owaniem	-4225
▁except	-4226
imo	-4227
rym	-4228
line	-4229
▁Bel	-4230
▁tax	-4231
lling	-4232
▁człowiek	-4233
▁Bu	-4234
cked	-4235
▁Por	-4236
▁Sec	-4237
▁Spo	-4238
nific	-4239
▁Słysz	-4240
▁istot	-4241
▁ważne	-4242
▁somebody	-4243
▁sytuacji	-4244
chie	-4245
▁sły	-4246
ories	-4247
▁ludz	-4248
▁wymi	-4249
ements	-4250
▁clean	-4251
▁expect	-4252
lad	-4253
żet	-4254
rzyw	-4255
▁saf	-4256
▁Twój	-4257
▁cred	-4258
▁goes	-4259
▁Zrobi	-4260
▁pokoju	-4261
▁występ	-4262
bardziej	-4263
▁fucking	-4264
▁niezbęd	-4265
▁niektórych	-4266
IA	-4267
oid	-4268
tku	-4269
▁Ac	-4270
▁fl	-4271
jemy	-4272
▁Tam	-4273
biera	-4274
▁send	-4275
▁ponad	-4276
▁Zostaw	-4277
▁instit	-4278
▁śmierci	-4279
bra	-4280
irth	-4281
▁tri	-4282
▁Dost	-4283
▁kosz	-4284
▁zami	-4285
wnątrz	-4286
▁lives	-4287
cies	-4288
nich	-4289
osek	-4290
▁Bob	-4291
▁sum	-4292
▁szef	-4293
▁trade	-4294
▁znowu	-4295
vention	-4296
▁rights	-4297
▁Myślałem	-4298
▁członkowskich	-4299
bit	-4300
ktyw	-4301
unic	-4302
▁harm	-4303
▁sama	-4304
▁zwyk	-4305
▁perform	-4306
ns	-4307
nął	-4308
ume	-4309
▁Wal	-4310
▁całą	-4311
▁Trakt	-4312
ultural	-4313
▁choice	-4314
▁Republic	-4315
▁relevant	-4316
▁człowieka	-4317
żeń	-4318
▁rok	-4319
▁suc	-4320
▁Przed	-4321
▁apart	-4322
▁żebym	-4323
▁December	-4324
czkę	-4325
iene	-4326
▁stanow	-4327
▁contrib	-4328
▁pomiędzy	-4329
ałe	-4330
sam	-4331
ues	-4332
▁Fir	-4333
▁Pre	-4334
▁dane	-4335
▁tend	-4336
▁impro	-4337
▁jakim	-4338
▁Spójrz	-4339
▁history	-4340
▁parents	-4341
▁relations	-4342
wen	-4343
kcie	-4344
▁lic	-4345
▁Prób	-4346
▁prop	-4347
owałam	-4348
▁rozumiem	-4349
▁międzynarod	-4350
tra	-4351
cide	-4352
czaj	-4353
▁rat	-4354
▁anal	-4355
niając	-4356
▁celów	-4357
▁enter	-4358
▁gdyby	-4359
▁przyzn	-4360
▁wrócić	-4361
▁projekt	-4362
▁activities	-4363
fu	-4364
ału	-4365
▁198	-4366
▁Bet	-4367
▁moc	-4368
3,	-4369
ware	-4370
▁Bóg	-4371
▁czu	-4372
ieneś	-4373
owano	-4374
alnego	-4375
nięcia	-4376
▁miałem	-4377
▁return	-4378
▁safety	-4379
▁Nothing	-4380
▁dokładnie	-4381
?"	-4382
vi	-4383
óle	-4384
▁er	-4385
ched	-4386
iały	-4387
raca	-4388
▁Lub	-4389
▁mid	-4390
▁net	-4391
aring	-4392
right	-4393
▁uzna	-4394
▁świet	-4395
▁zrozumie	-4396
▁niniejszej	-4397
IC	-4398
▁byli	-4399
▁above	-4400
▁skute	-4401
▁yours	-4402
▁effect	-4403
▁needed	-4404
▁single	-4405
▁techni	-4406
▁Rozumie	-4407
▁przewidzi	-4408
▁uzn	-4409
ished	-4410
▁King	-4411
▁mama	-4412
▁agent	-4413
▁człon	-4414
▁jakby	-4415
▁kraju	-4416
▁sense	-4417
▁poprzez	-4418
▁position	-4419
fa	-4420
▁Bro	-4421
▁cell	-4422
▁zawart	-4423
▁powinno	-4424
rzeba	-4425
▁Alex	-4426
▁mówię	-4427
▁szpital	-4428
▁zostało	-4429
cha	-4430
oul	-4431
▁Ze	-4432
▁św	-4433
▁dwie	-4434
▁grand	-4435
▁value	-4436
▁vehic	-4437
czonych	-4438
▁skończy	-4439
2,	-4440
atycz	-4441
▁bezp	-4442
▁sekt	-4443
▁shoot	-4444
▁artyku	-4445
▁consider	-4446
▁whatever	-4447
▁wystarcz	-4448
aży	-4449
▁Hen	-4450
▁klu	-4451
▁dniu	-4452
ources	-4453
▁słuch	-4454
▁assist	-4455
▁Ponieważ	-4456
30	-4457
ciej	-4458
▁Cię	-4459
▁flo	-4460
▁kłop	-4461
▁suff	-4462
cially	-4463
▁Przez	-4464
▁entire	-4465
ify	-4466
iot	-4467
roy	-4468
óry	-4469
▁2,	-4470
▁OJ	-4471
licy	-4472
▁hor	-4473
▁lay	-4474
▁żyw	-4475
▁desc	-4476
▁diab	-4477
▁carry	-4478
▁intro	-4479
▁reali	-4480
▁action	-4481
▁contact	-4482
▁feeling	-4483
icj	-4484
omi	-4485
enny	-4486
▁Ros	-4487
▁Rich	-4488
▁Star	-4489
▁broń	-4490
▁obyw	-4491
▁rano	-4492
▁quick	-4493
▁drodze	-4494
▁zmiany	-4495
▁Captain	-4496
▁leaving	-4497
▁publicz	-4498
▁niebezpie	-4499
lid	-4500
atyw	-4501
isko	-4502
lice	-4503
likow	-4504
▁circ	-4505
▁czek	-4506
▁innym	-4507
▁przysz	-4508
cją	-4509
▁..	-4510
▁bal	-4511
▁cud	-4512
jedno	-4513
niosek	-4514
▁Could	-4515
▁sound	-4516
▁klient	-4517
▁prawie	-4518
▁introdu	-4519
▁rozwoju	-4520
▁powiedziała	-4521
ode	-4522
▁Wys	-4523
▁cla	-4524
▁zes	-4525
▁Janu	-4526
▁lose	-4527
kowych	-4528
▁doświad	-4529
▁chciałem	-4530
ho	-4531
▁ku	-4532
▁akt	-4533
▁due	-4534
adzie	-4535
arter	-4536
ective	-4537
▁legal	-4538
▁legis	-4539
▁osoby	-4540
▁naszym	-4541
▁zasady	-4542
▁pieniędzy	-4543
▁Europejskiego	-4544
BI	-4545
The	-4546
key	-4547
lam	-4548
▁ur	-4549
▁Hel	-4550
szech	-4551
▁bądź	-4552
▁cool	-4553
▁wina	-4554
▁usług	-4555
▁danger	-4556
▁jednost	-4557
▁strateg	-4558
▁hospital	-4559
40	-4560
unk	-4561
▁Sw	-4562
aced	-4563
▁sat	-4564
▁sort	-4565
idered	-4566
▁rozpo	-4567
▁zaczą	-4568
▁środowis	-4569
▁according	-4570
▁authority	-4571
▁najbardziej	-4572
asad	-4573
ciem	-4574
▁dou	-4575
▁los	-4576
rence	-4577
▁gran	-4578
▁field	-4579
▁wspar	-4580
dopodob	-4581
ese	-4582
▁2.	-4583
cemy	-4584
kują	-4585
obec	-4586
▁gro	-4587
▁Mary	-4588
▁recog	-4589
▁short	-4590
▁przyzna	-4591
▁rodziny	-4592
cił	-4593
org	-4594
rad	-4595
medi	-4596
▁Lep	-4597
▁bom	-4598
▁crit	-4599
▁stycz	-4600
▁January	-4601
▁regular	-4602
▁running	-4603
▁considered	-4604
▁environment	-4605
▁ml	-4606
więk	-4607
▁buy	-4608
▁lar	-4609
▁rez	-4610
▁Even	-4611
▁draw	-4612
▁inny	-4613
▁możliwości	-4614
dż	-4615
cię	-4616
▁bat	-4617
rywat	-4618
▁księ	-4619
▁wiemy	-4620
▁Ludzie	-4621
▁budżet	-4622
▁refund	-4623
▁jakiego	-4624
▁competent	-4625
▁top	-4626
▁Żad	-4627
ością	-4628
▁glad	-4629
▁birth	-4630
▁kilku	-4631
▁direct	-4632
▁social	-4633
iff	-4634
śleć	-4635
▁ład	-4636
miast	-4637
wanie	-4638
▁Keep	-4639
▁cier	-4640
▁opis	-4641
▁znam	-4642
▁Niniej	-4643
▁commit	-4644
▁niczego	-4645
▁widzieć	-4646
▁material	-4647
mes	-4648
ror	-4649
▁ana	-4650
▁dość	-4651
▁zwol	-4652
▁czuję	-4653
▁asking	-4654
▁gdzieś	-4655
▁zakład	-4656
▁dziecia	-4657
▁mention	-4658
▁required	-4659
4,	-4660
yp	-4661
atic	-4662
kowe	-4663
lied	-4664
▁ann	-4665
▁vol	-4666
cient	-4667
▁June	-4668
▁based	-4669
▁elect	-4670
▁touch	-4671
ychmiast	-4672
▁established	-4673
▁:	-4674
▁Sm	-4675
sels	-4676
takt	-4677
▁III	-4678
▁kre	-4679
gress	-4680
▁znak	-4681
▁słysz	-4682
▁grudnia	-4683
▁objective	-4684
czek	-4685
▁App	-4686
ancji	-4687
▁blis	-4688
▁meth	-4689
▁zdol	-4690
▁punkt	-4691
▁pozwol	-4692
▁przekon	-4693
zji	-4694
▁kan	-4695
▁mad	-4696
niejsze	-4697
▁diffic	-4698
▁prakty	-4699
▁względu	-4700
▁signific	-4701
▁international	-4702
cin	-4703
enty	-4704
▁pła	-4705
▁pole	-4706
▁śred	-4707
▁decid	-4708
▁charak	-4709
▁Chciałbym	-4710
ita	-4711
joy	-4712
alnej	-4713
ciwie	-4714
entlemen	-4715
urs	-4716
▁Pu	-4717
ners	-4718
▁cele	-4719
▁poja	-4720
▁conne	-4721
▁relat	-4722
▁trakt	-4723
▁zmian	-4724
▁poznać	-4725
▁kontrol	-4726
wą	-4727
chy	-4728
▁PR	-4729
▁eng	-4730
▁pły	-4731
▁zie	-4732
▁ści	-4733
▁źle	-4734
adies	-4735
niego	-4736
szcza	-4737
▁sick	-4738
▁inaczej	-4739
▁przepisów	-4740
iają	-4741
kogo	-4742
▁dać	-4743
▁Albo	-4744
▁Post	-4745
▁Sara	-4746
▁funk	-4747
rument	-4748
wyczaj	-4749
▁James	-4750
▁cases	-4751
arł	-4752
list	-4753
stit	-4754
ształ	-4755
cident	-4756
▁strze	-4757
▁words	-4758
▁okresie	-4759
bacz	-4760
czka	-4761
▁Rom	-4762
▁Spe	-4763
▁zgin	-4764
pienia	-4765
▁girls	-4766
▁indiv	-4767
▁works	-4768
ającego	-4769
▁wzrost	-4770
▁naszego	-4771
01	-4772
OU	-4773
amin	-4774
erze	-4775
kasz	-4776
▁Sim	-4777
▁cią	-4778
ośred	-4779
▁ukry	-4780
libyśmy	-4781
▁People	-4782
▁discuss	-4783
yn	-4784
sue	-4785
rześ	-4786
▁bog	-4787
ujący	-4788
▁sold	-4789
▁szuk	-4790
ension	-4791
▁Jakie	-4792
▁figure	-4793
▁prywat	-4794
aru	-4795
▁pkt	-4796
▁rid	-4797
ermin	-4798
▁fair	-4799
▁main	-4800
▁nowe	-4801
▁napis	-4802
▁consum	-4803
▁sector	-4804
▁zmniej	-4805
▁stanowi	-4806
▁produkcji	-4807
EA	-4808
yer	-4809
nawi	-4810
▁osz	-4811
▁zgo	-4812
cious	-4813
ising	-4814
▁Paul	-4815
▁pier	-4816
▁kierow	-4817
▁others	-4818
▁promise	-4819
▁stronie	-4820
▁Try	-4821
▁byś	-4822
▁eff	-4823
▁więz	-4824
▁favor	-4825
▁sprób	-4826
▁dinner	-4827
▁recomm	-4828
▁shouldn	-4829
▁industry	-4830
▁management	-4831
▁implementation	-4832
OM	-4833
,000	-4834
haps	-4835
nalaz	-4836
▁oceny	-4837
▁pozwoli	-4838
▁involved	-4839
▁Poz	-4840
▁age	-4841
▁gen	-4842
▁lie	-4843
▁lin	-4844
▁spę	-4845
▁clos	-4846
▁odej	-4847
godnie	-4848
▁major	-4849
▁widzę	-4850
▁szczegół	-4851
rid	-4852
ican	-4853
▁lik	-4854
▁hang	-4855
▁learn	-4856
▁samym	-4857
▁wieku	-4858
▁victim	-4859
IE	-4860
▁Kap	-4861
▁Mal	-4862
owymi	-4863
▁park	-4864
▁typu	-4865
▁powiem	-4866
▁samochód	-4867
wyż	-4868
▁Mike	-4869
▁Sure	-4870
icient	-4871
▁First	-4872
▁konku	-4873
▁zaraz	-4874
▁jednej	-4875
▁amended	-4876
▁godziny	-4877
▁przedsiębiorstw	-4878
els	-4879
▁90	-4880
▁Pr	-4881
ging	-4882
rotu	-4883
▁bab	-4884
▁bel	-4885
▁var	-4886
▁black	-4887
▁Komisję	-4888
▁odpowiad	-4889
dle	-4890
łoży	-4891
▁Mag	-4892
▁nowych	-4893
▁Something	-4894
▁widziałem	-4895
▁wd	-4896
jesz	-4897
upid	-4898
▁Jac	-4899
▁Nat	-4900
▁insp	-4901
▁powy	-4902
dziłem	-4903
▁chron	-4904
▁costs	-4905
▁adopted	-4906
▁korzyst	-4907
▁Ko	-4908
głos	-4909
▁mach	-4910
▁paid	-4911
▁absol	-4912
▁badań	-4913
▁cross	-4914
▁wystą	-4915
▁pewnie	-4916
▁przych	-4917
▁rather	-4918
▁stycznia	-4919
col	-4920
mów	-4921
nel	-4922
yle	-4923
▁Exc	-4924
▁Idź	-4925
▁dol	-4926
▁pis	-4927
▁Nice	-4928
▁niem	-4929
▁książ	-4930
▁porów	-4931
▁innymi	-4932
▁stwierdz	-4933
▁concerning	-4934
▁vi	-4935
bliż	-4936
iono	-4937
osen	-4938
▁obu	-4939
▁adopt	-4940
▁czemu	-4941
▁wynik	-4942
▁trzeci	-4943
▁worked	-4944
▁regional	-4945
▁iż	-4946
ides	-4947
oint	-4948
▁dum	-4949
▁Byłem	-4950
▁oblig	-4951
▁worth	-4952
▁anyway	-4953
▁opport	-4954
▁strong	-4955
▁element	-4956
▁opinion	-4957
▁programu	-4958
▁określonych	-4959
elt	-4960
ino	-4961
erve	-4962
just	-4963
▁neg	-4964
ździe	-4965
▁From	-4966
▁płat	-4967
▁włącz	-4968
▁budget	-4969
▁2012	-4970
▁pros	-4971
▁road	-4972
▁Amery	-4973
▁achie	-4974
▁funny	-4975
▁happens	-4976
▁pytanie	-4977
▁rozmawiać	-4978
ief	-4979
que	-4980
▁sła	-4981
czycie	-4982
▁Chodzi	-4983
▁himself	-4984
▁Przestań	-4985
▁produktu	-4986
▁responsible	-4987
iam	-4988
▁dzi	-4989
czona	-4990
▁Republi	-4991
▁inwesty	-4992
▁significant	-4993
ask	-4994
▁wąt	-4995
▁chcą	-4996
▁obie	-4997
▁ruch	-4998
▁rusz	-4999
▁lunch	-5000
▁share	-5001
▁ilości	-5002
▁scared	-5003
▁większ	-5004
▁quality	-5005
▁dziedzin	-5006
▁ostatnio	-5007
5,	-5008
gh	-5009
dyn	-5010
▁Det	-5011
▁hig	-5012
▁key	-5013
▁wyt	-5014
▁Boga	-5015
▁Wiel	-5016
▁boys	-5017
▁Zaraz	-5018
▁potraf	-5019
▁forward	-5020
▁government	-5021
▁instrument	-5022
len	-5023
▁4.	-5024
▁ds	-5025
▁kro	-5026
▁glob	-5027
▁prez	-5028
▁skut	-5029
▁pursu	-5030
▁zapyt	-5031
▁origin	-5032
▁świata	-5033
▁address	-5034
▁members	-5035
▁ustanow	-5036
▁personal	-5037
▁wspólnego	-5038
chu	-5039
lity	-5040
▁ver	-5041
▁Dale	-5042
▁ocze	-5043
▁handl	-5044
▁martw	-5045
▁ogóle	-5046
▁Lepiej	-5047
▁United	-5048
▁immedi	-5049
nica	-5050
odaw	-5051
urry	-5052
▁div	-5053
ander	-5054
▁Hold	-5055
▁Nasz	-5056
▁staw	-5057
▁Jasne	-5058
▁Those	-5059
▁thereof	-5060
▁polityki	-5061
▁bezpośred	-5062
▁uwzględniając	-5063
IT	-5064
cus	-5065
ruk	-5066
pris	-5067
▁lip	-5068
niony	-5069
▁całe	-5070
▁spad	-5071
▁umoż	-5072
▁zaję	-5073
▁znik	-5074
▁trzym	-5075
▁zabój	-5076
▁dostaw	-5077
▁przyjm	-5078
▁changed	-5079
▁politic	-5080
▁private	-5081
▁wniosek	-5082
▁Parlamentu	-5083
▁individual	-5084
gól	-5085
uki	-5086
▁ho	-5087
▁nos	-5088
▁Which	-5089
▁early	-5090
▁końca	-5091
▁Zjedno	-5092
▁murder	-5093
▁strasz	-5094
▁zdecyd	-5095
▁towarzy	-5096
▁establish	-5097
▁interested	-5098
aci	-5099
▁Bl	-5100
ester	-5101
pping	-5102
▁Only	-5103
▁sztu	-5104
▁Pierw	-5105
▁niesp	-5106
▁układ	-5107
▁disapp	-5108
▁miasta	-5109
▁anybody	-5110
▁carried	-5111
▁playing	-5112
ix	-5113
ont	-5114
tor	-5115
▁0,	-5116
angu	-5117
ciaż	-5118
rzeż	-5119
▁Ile	-5120
▁kam	-5121
▁kop	-5122
▁opt	-5123
dzień	-5124
▁More	-5125
▁czar	-5126
lation	-5127
▁Henry	-5128
▁objęt	-5129
▁prawdę	-5130
▁difficult	-5131
▁Everything	-5132
▁Tr	-5133
ists	-5134
▁Cor	-5135
▁Max	-5136
▁baw	-5137
▁cre	-5138
▁dal	-5139
▁Twoja	-5140
▁zatem	-5141
▁postan	-5142
▁threat	-5143
▁drugiej	-5144
lue	-5145
▁Put	-5146
▁podd	-5147
czyłem	-5148
▁słowa	-5149
cyjnych	-5150
czności	-5151
▁konkuren	-5152
OW	-5153
ąć	-5154
nił	-5155
▁zu	-5156
▁Urz	-5157
▁eli	-5158
▁kor	-5159
▁mię	-5160
ggest	-5161
nical	-5162
szcie	-5163
▁near	-5164
▁phot	-5165
czucie	-5166
▁David	-5167
▁powod	-5168
▁throw	-5169
▁Excuse	-5170
▁giving	-5171
▁obserw	-5172
▁kobiety	-5173
▁wczoraj	-5174
▁najmniej	-5175
resh	-5176
soci	-5177
▁Cho	-5178
▁Rem	-5179
iting	-5180
▁comb	-5181
▁kept	-5182
▁Czego	-5183
▁Każdy	-5184
▁stran	-5185
▁uciek	-5186
fikacji	-5187
licable	-5188
▁finally	-5189
▁potrzebuje	-5190
olu	-5191
alna	-5192
ball	-5193
itch	-5194
sequ	-5195
▁eye	-5196
iałeś	-5197
▁Mamo	-5198
▁catch	-5199
▁offer	-5200
▁pewna	-5201
▁quant	-5202
▁wyjść	-5203
▁powrot	-5204
▁decided	-5205
▁profess	-5206
▁suggest	-5207
▁building	-5208
▁wewnętrz	-5209
▁przedmiot	-5210
va	-5211
aję	-5212
ech	-5213
gam	-5214
oph	-5215
ands	-5216
onów	-5217
▁Ant	-5218
▁Pra	-5219
acter	-5220
awiam	-5221
▁foot	-5222
▁inno	-5223
▁lady	-5224
▁dzwon	-5225
▁issue	-5226
▁maint	-5227
▁associ	-5228
▁prison	-5229
▁energii	-5230
▁guarant	-5231
▁kobieta	-5232
20	-5233
▁Ca	-5234
łuma	-5235
▁Wol	-5236
▁żon	-5237
▁camp	-5238
▁konk	-5239
▁zało	-5240
▁loved	-5241
▁około	-5242
▁udziel	-5243
▁istnieje	-5244
▁rzeczywist	-5245
1,	-5246
9,	-5247
kund	-5248
▁Zał	-5249
▁amb	-5250
fully	-5251
orter	-5252
▁atak	-5253
▁coun	-5254
▁rand	-5255
▁benef	-5256
▁method	-5257
▁państwo	-5258
▁wiadomość	-5259
▁cooperation	-5260
▁relationship	-5261
▁Daw	-5262
▁Jer	-5263
▁War	-5264
▁aff	-5265
▁szu	-5266
prise	-5267
▁duty	-5268
▁Never	-5269
▁idzie	-5270
▁separ	-5271
▁wygra	-5272
▁credit	-5273
▁uczest	-5274
▁contract	-5275
▁applicable	-5276
acją	-5277
ierz	-5278
▁Kró	-5279
▁lud	-5280
▁nadz	-5281
▁poży	-5282
▁rząd	-5283
▁ahead	-5284
▁breat	-5285
▁byłam	-5286
▁głowy	-5287
▁byłoby	-5288
▁ciągle	-5289
▁prices	-5290
▁zatrzym	-5291
▁investigation	-5292
NA	-5293
fy	-5294
iat	-5295
nce	-5296
urę	-5297
rafi	-5298
▁Dop	-5299
▁San	-5300
ufact	-5301
▁Russ	-5302
▁włos	-5303
czekać	-5304
kojnie	-5305
▁konty	-5306
▁pomag	-5307
▁pomyśl	-5308
▁wiedział	-5309
▁dziewczyna	-5310
▁natychmiast	-5311
pose	-5312
▁Tur	-5313
▁Wil	-5314
noszą	-5315
▁Prac	-5316
▁tymi	-5317
▁drogi	-5318
▁podpis	-5319
▁explain	-5320
▁warunki	-5321
▁problems	-5322
rel	-5323
żdż	-5324
eria	-5325
▁hom	-5326
▁lau	-5327
▁śle	-5328
▁rate	-5329
zydent	-5330
▁czymś	-5331
▁niepo	-5332
umienia	-5333
▁zagroż	-5334
▁central	-5335
▁przyczy	-5336
▁official	-5337
▁Posłuchaj	-5338
▁ustanawiają	-5339
50	-5340
dom	-5341
lies	-5342
stem	-5343
▁arm	-5344
cture	-5345
racji	-5346
▁Aust	-5347
▁deli	-5348
▁głup	-5349
▁pora	-5350
▁claim	-5351
▁event	-5352
▁labor	-5353
▁animals	-5354
▁rodzaju	-5355
▁prowadzi	-5356
▁przepraszam	-5357
▁ge	-5358
rian	-5359
rict	-5360
▁Była	-5361
▁fail	-5362
▁imag	-5363
▁pomy	-5364
▁Tutaj	-5365
▁fault	-5366
▁pojaw	-5367
▁appear	-5368
▁nowego	-5369
▁stupid	-5370
▁szkoły	-5371
▁czerwca	-5372
▁practice	-5373
▁experience	-5374
▁przypadkach	-5375
6,	-5376
read	-5377
wiel	-5378
▁Jul	-5379
▁Moje	-5380
▁honey	-5381
▁panią	-5382
▁worse	-5383
▁review	-5384
▁covered	-5385
ior	-5386
sym	-5387
▁80	-5388
nosi	-5389
▁Com	-5390
▁max	-5391
▁szk	-5392
arzem	-5393
rócić	-5394
▁2013	-5395
▁nowy	-5396
▁powt	-5397
▁success	-5398
▁undertak	-5399
▁działalności	-5400
pro	-5401
zie	-5402
irus	-5403
reen	-5404
nieść	-5405
▁pozw	-5406
▁self	-5407
▁służ	-5408
▁upon	-5409
▁Nadal	-5410
▁matka	-5411
wierdzi	-5412
▁Having	-5413
▁increase	-5414
▁zawierają	-5415
ero	-5416
kąd	-5417
▁91	-5418
ches	-5419
igned	-5420
rible	-5421
verse	-5422
▁Stra	-5423
▁duch	-5424
▁file	-5425
▁stał	-5426
▁wody	-5427
▁ślub	-5428
▁Kocham	-5429
▁mistake	-5430
▁pierwsze	-5431
śmie	-5432
anies	-5433
▁Fund	-5434
▁Pozw	-5435
▁Rozp	-5436
▁ball	-5437
▁cold	-5438
rezent	-5439
▁arran	-5440
▁lubię	-5441
▁połow	-5442
▁wspan	-5443
▁spowod	-5444
▁zatrud	-5445
▁całkiem	-5446
▁measure	-5447
▁results	-5448
▁dziękuję	-5449
▁załącznika	-5450
▁di	-5451
cale	-5452
▁Cla	-5453
▁box	-5454
▁gas	-5455
▁lok	-5456
▁zga	-5457
ektyw	-5458
ledge	-5459
▁Call	-5460
▁dose	-5461
▁doub	-5462
▁Poroz	-5463
▁meant	-5464
▁weren	-5465
▁załat	-5466
▁zwierząt	-5467
▁sprzedaży	-5468
▁odpowiedzi	-5469
AC	-5470
icip	-5471
reci	-5472
▁Zak	-5473
ratul	-5474
szczy	-5475
▁chodź	-5476
▁macie	-5477
▁communic	-5478
▁współpracy	-5479
bur	-5480
nim	-5481
órz	-5482
reng	-5483
wiat	-5484
▁Oni	-5485
▁Very	-5486
▁aktyw	-5487
▁kredy	-5488
▁total	-5489
▁calling	-5490
▁powiedz	-5491
▁zwierzę	-5492
▁chciałbym	-5493
▁programme	-5494
ED	-5495
dzam	-5496
ejdź	-5497
encj	-5498
▁FBI	-5499
cyjne	-5500
kości	-5501
▁mamo	-5502
▁shut	-5503
▁zauf	-5504
▁złoż	-5505
▁agree	-5506
▁cause	-5507
▁terms	-5508
▁twarz	-5509
▁zaczę	-5510
▁dopóki	-5511
▁moving	-5512
▁produc	-5513
▁message	-5514
ape	-5515
▁Cal	-5516
▁Tro	-5517
▁imm	-5518
▁żyć	-5519
ently	-5520
▁Niez	-5521
▁Wrac	-5522
▁deep	-5523
▁parę	-5524
▁poni	-5525
▁tato	-5526
▁Peter	-5527
▁agric	-5528
▁local	-5529
▁Państw	-5530
▁granic	-5531
▁kocham	-5532
▁status	-5533
▁środka	-5534
▁rozmawia	-5535
▁przewodniczą	-5536
onu	-5537
osh	-5538
▁Ang	-5539
▁gar	-5540
▁łóż	-5541
anymi	-5542
ators	-5543
▁dise	-5544
▁hair	-5545
▁rese	-5546
▁Jesus	-5547
▁Offic	-5548
▁court	-5549
▁sądzę	-5550
▁zależ	-5551
▁missing	-5552
▁żadnego	-5553
▁przepisy	-5554
,"	-5555
lls	-5556
rek	-5557
sta	-5558
ared	-5559
itiz	-5560
ruch	-5561
▁prag	-5562
▁enjoy	-5563
▁final	-5564
▁initi	-5565
▁study	-5566
▁Czekaj	-5567
ął	-5568
pit	-5569
▁Ży	-5570
▁Bud	-5571
▁Nov	-5572
ences	-5573
▁Obie	-5574
▁Stay	-5575
▁fram	-5576
▁narz	-5577
▁niech	-5578
▁react	-5579
▁samol	-5580
▁Nobody	-5581
▁Actually	-5582
▁określone	-5583
▁kiedykolwiek	-5584
7,	-5585
▁Ir	-5586
pril	-5587
room	-5588
▁cat	-5589
yczne	-5590
▁firm	-5591
▁urat	-5592
▁peace	-5593
▁Intern	-5594
▁sekund	-5595
▁effects	-5596
▁purpose	-5597
▁zamiesz	-5598
▁ponownie	-5599
.3	-5600
dzt	-5601
każ	-5602
łać	-5603
ajmy	-5604
awać	-5605
bieg	-5606
ajesz	-5607
niesz	-5608
oking	-5609
▁felt	-5610
▁leku	-5611
▁uder	-5612
▁jedna	-5613
▁wobec	-5614
▁zdoby	-5615
owanego	-5616
▁dostać	-5617
▁thanks	-5618
▁uwierzyć	-5619
▁companies	-5620
▁szczęście	-5621
▁potrzebuję	-5622
ancy	-5623
urch	-5624
▁Oct	-5625
▁Sch	-5626
odies	-5627
▁July	-5628
▁łącz	-5629
▁April	-5630
▁serca	-5631
▁design	-5632
▁gentlemen	-5633
hib	-5634
van	-5635
żyw	-5636
órzy	-5637
▁rek	-5638
uważy	-5639
▁anti	-5640
pected	-5641
▁Danie	-5642
▁white	-5643
▁recent	-5644
▁początku	-5645
▁jesteście	-5646
▁zapewnienia	-5647
▁IN	-5648
iers	-5649
▁Dzie	-5650
▁damn	-5651
▁dear	-5652
▁fakt	-5653
▁syna	-5654
▁wpad	-5655
▁Dzień	-5656
▁połud	-5657
▁często	-5658
▁target	-5659
▁decyzję	-5660
▁weekend	-5661
▁continue	-5662
▁straight	-5663
▁zastosowanie	-5664
AL	-5665
elu	-5666
ryt	-5667
▁ef	-5668
ighb	-5669
oice	-5670
▁gór	-5671
aster	-5672
ktury	-5673
▁Miło	-5674
▁czyt	-5675
▁jaka	-5676
▁taką	-5677
▁używ	-5678
▁viol	-5679
rzenia	-5680
mission	-5681
▁trzech	-5682
▁welcome	-5683
▁Wszystkie	-5684
▁konieczne	-5685
ING	-5686
ift	-5687
lew	-5688
łuż	-5689
acka	-5690
cord	-5691
rite	-5692
▁Wed	-5693
▁odw	-5694
▁red	-5695
ająco	-5696
samow	-5697
veral	-5698
▁weap	-5699
▁żona	-5700
kowego	-5701
▁grupy	-5702
▁naszą	-5703
▁uzysk	-5704
▁blisko	-5705
▁turned	-5706
▁granted	-5707
▁determin	-5708
▁powrotem	-5709
▁zabezpie	-5710
alu	-5711
azy	-5712
nis	-5713
▁ul	-5714
lace	-5715
ober	-5716
▁pen	-5717
▁Rada	-5718
▁kiss	-5719
▁areas	-5720
▁demon	-5721
▁animal	-5722
▁arrest	-5723
▁możliwość	-5724
▁provision	-5725
▁Powiedział	-5726
▁197	-5727
▁Danny	-5728
▁Ostat	-5729
▁publi	-5730
▁robię	-5731
▁takes	-5732
▁wyzna	-5733
▁across	-5734
▁worried	-5735
chodzenia	-5736
EL	-5737
ik	-5738
kan	-5739
akes	-5740
pozy	-5741
ytor	-5742
▁tor	-5743
erson	-5744
▁Nick	-5745
▁Zabi	-5746
▁Zamk	-5747
▁brat	-5748
▁gwar	-5749
▁ones	-5750
▁ziem	-5751
▁Świe	-5752
▁Przyj	-5753
▁amend	-5754
▁lucky	-5755
▁mieli	-5756
▁dostos	-5757
▁wiedzą	-5758
▁wierzy	-5759
▁przewid	-5760
▁wszystkiego	-5761
8,	-5762
ffee	-5763
▁aud	-5764
▁rzu	-5765
▁dark	-5766
pełnie	-5767
▁klasy	-5768
▁minim	-5769
▁plant	-5770
▁space	-5771
szedłem	-5772
▁patient	-5773
▁wedding	-5774
▁accident	-5775
▁manufact	-5776
▁pochodzą	-5777
▁przestęp	-5778
iu	-5779
▁Sa	-5780
▁fly	-5781
▁mąż	-5782
▁vac	-5783
asing	-5784
jeżdż	-5785
▁faci	-5786
▁radę	-5787
▁text	-5788
▁wraż	-5789
icture	-5790
▁Agent	-5791
▁nasza	-5792
▁przetw	-5793
▁transp	-5794
▁progress	-5795
▁procedures	-5796
ekt	-5797
jon	-5798
ders	-5799
▁naz	-5800
▁nor	-5801
ework	-5802
▁Bank	-5803
▁Park	-5804
▁Ciebie	-5805
▁pomoże	-5806
▁maximum	-5807
▁particip	-5808
ilt	-5809
ógł	-5810
żąd	-5811
▁Oj	-5812
▁Os	-5813
▁Ru	-5814
cześ	-5815
ires	-5816
▁Int	-5817
▁Zat	-5818
▁arg	-5819
alnym	-5820
▁pięć	-5821
▁ciała	-5822
▁goods	-5823
▁przen	-5824
▁miejsc	-5825
▁miłość	-5826
▁ryzyka	-5827
▁streng	-5828
▁śmierć	-5829
▁środku	-5830
▁appreci	-5831
▁zawiera	-5832
▁Chciałem	-5833
▁funkcjon	-5834
▁sometimes	-5835
rey	-5836
▁pł	-5837
szko	-5838
▁ból	-5839
▁hop	-5840
▁kimś	-5841
▁Produ	-5842
▁idiot	-5843
▁weird	-5844
▁nazywa	-5845
▁straci	-5846
▁użytkow	-5847
▁zatwierdz	-5848
.4	-5849
ij	-5850
ION	-5851
bye	-5852
lock	-5853
ship	-5854
▁Aut	-5855
▁Maj	-5856
▁Nor	-5857
▁del	-5858
▁eas	-5859
▁Port	-5860
▁amaz	-5861
▁spir	-5862
▁stać	-5863
ździer	-5864
▁langu	-5865
▁planet	-5866
▁podoba	-5867
▁takiej	-5868
▁October	-5869
▁Widzisz	-5870
▁Zgodnie	-5871
▁zaczyna	-5872
▁niezależ	-5873
▁powietrz	-5874
▁prawdziw	-5875
▁effective	-5876
cel	-5877
oma	-5878
▁móz	-5879
▁suk	-5880
▁sun	-5881
aking	-5882
ially	-5883
orzyć	-5884
łożyć	-5885
▁Jess	-5886
▁simp	-5887
▁skon	-5888
▁Great	-5889
▁Jimmy	-5890
▁oskar	-5891
niczych	-5892
▁weight	-5893
▁General	-5894
▁pozostał	-5895
▁training	-5896
▁Potrzebuję	-5897
erz	-5898
ken	-5899
ługo	-5900
▁Ber	-5901
▁Szy	-5902
▁ręce	-5903
▁Środ	-5904
ategor	-5905
▁extra	-5906
▁zabił	-5907
▁sounds	-5908
▁zrobię	-5909
▁destroy	-5910
▁parties	-5911
▁technical	-5912
TA	-5913
roz	-5914
▁THE	-5915
asons	-5916
czyła	-5917
▁brak	-5918
▁spoj	-5919
▁dopie	-5920
▁obejm	-5921
▁wziąć	-5922
▁handle	-5923
▁looked	-5924
▁notice	-5925
▁rejest	-5926
▁zabrać	-5927
▁przypom	-5928
▁systems	-5929
▁intended	-5930
▁leczenia	-5931
▁somewhere	-5932
▁assessment	-5933
źle	-5934
inary	-5935
▁Cour	-5936
▁Musi	-5937
▁Poza	-5938
▁boss	-5939
▁wyob	-5940
▁Jeden	-5941
łaszcza	-5942
▁nikogo	-5943
acyjnych	-5944
▁dopiero	-5945
▁stanowis	-5946
łoń	-5947
rant	-5948
asure	-5949
▁lear	-5950
▁resta	-5951
▁Someone	-5952
▁najwięk	-5953
▁paździer	-5954
▁zewnątrz	-5955
▁dziewczyn	-5956
▁sprawdzić	-5957
▁sprawozdania	-5958
lla	-5959
prz	-5960
▁38	-5961
zwol	-5962
▁cuk	-5963
▁Mark	-5964
▁drop	-5965
▁mogli	-5966
viously	-5967
▁Pozwól	-5968
▁Znalaz	-5969
▁levels	-5970
▁stosow	-5971
▁wykony	-5972
▁powiesz	-5973
▁przykro	-5974
▁wieczór	-5975
AS	-5976
łó	-5977
bon	-5978
lax	-5979
▁Dy	-5980
anii	-5981
enci	-5982
krót	-5983
▁jas	-5984
▁Germ	-5985
▁Nast	-5986
▁jech	-5987
▁mały	-5988
▁tamt	-5989
▁zajm	-5990
▁Gdyby	-5991
▁podat	-5992
▁pregn	-5993
▁track	-5994
▁umowy	-5995
▁Wybacz	-5996
▁nature	-5997
▁otwart	-5998
▁obecnie	-5999
▁completely	-6000
▁wa	-6001
owol	-6002
▁cop	-6003
▁der	-6004
▁ski	-6005
▁Sept	-6006
▁Tony	-6007
▁Znaj	-6008
▁mult	-6009
▁muzy	-6010
▁całym	-6011
▁odwie	-6012
▁impact	-6013
▁podejm	-6014
▁samego	-6015
pecially	-6016
▁example	-6017
▁picture	-6018
▁Będziemy	-6019
▁istnieją	-6020
▁research	-6021
▁związane	-6022
▁przynajmniej	-6023
▁tab	-6024
▁West	-6025
▁Since	-6026
▁avoid	-6027
▁crime	-6028
▁lipca	-6029
▁reach	-6030
▁talked	-6031
▁jakości	-6032
▁related	-6033
▁Traktatu	-6034
▁poziomie	-6035
▁tygodniu	-6036
ira	-6037
ray	-6038
▁wę	-6039
isji	-6040
▁grup	-6041
ograph	-6042
▁among	-6043
▁chcie	-6044
▁mówił	-6045
▁praca	-6046
▁smell	-6047
▁Father	-6048
▁detail	-6049
▁Chciała	-6050
▁imports	-6051
▁kosztów	-6052
▁stosuje	-6053
▁terytor	-6054
▁American	-6055
▁warunków	-6056
▁attention	-6057
▁additional	-6058
▁especially	-6059
▁Ce	-6060
niać	-6061
▁Ray	-6062
▁Też	-6063
▁umy	-6064
▁usp	-6065
cenie	-6066
▁Zast	-6067
▁wysz	-6068
▁Looks	-6069
▁byłeś	-6070
▁zabra	-6071
▁Pomyśl	-6072
▁każdej	-6073
▁sposob	-6074
▁Właściwie	-6075
cul	-6076
xic	-6077
▁IV	-6078
▁kg	-6079
alis	-6080
▁enc	-6081
▁żoł	-6082
ciach	-6083
enerw	-6084
▁Jaki	-6085
▁card	-6086
▁educ	-6087
▁krew	-6088
▁spół	-6089
▁żart	-6090
▁citiz	-6091
▁spent	-6092
▁sport	-6093
▁active	-6094
▁ground	-6095
▁potrze	-6096
▁połącz	-6097
▁produk	-6098
▁temper	-6099
▁consult	-6100
▁tydzień	-6101
▁świetnie	-6102
ET	-6103
car	-6104
dam	-6105
ily	-6106
ston	-6107
▁Weź	-6108
▁cam	-6109
▁fra	-6110
▁pam	-6111
acher	-6112
▁Adam	-6113
▁drog	-6114
▁fear	-6115
▁flow	-6116
▁Other	-6117
▁miasto	-6118
▁neighb	-6119
▁szansę	-6120
▁wierzę	-6121
▁imieniu	-6122
▁pojęcia	-6123
▁tygodni	-6124
▁potential	-6125
▁wieczorem	-6126
ald	-6127
cof	-6128
gos	-6129
iąt	-6130
noc	-6131
▁Zw	-6132
▁Ger	-6133
▁Jap	-6134
▁Lou	-6135
▁Med	-6136
▁Wow	-6137
▁doj	-6138
▁gry	-6139
▁poj	-6140
arent	-6141
stwem	-6142
zywam	-6143
▁Niem	-6144
▁York	-6145
▁grze	-6146
▁poor	-6147
▁till	-6148
▁złap	-6149
▁board	-6150
▁large	-6151
▁serce	-6152
▁kryter	-6153
▁seeing	-6154
▁thinks	-6155
▁pursuant	-6156
▁stanowią	-6157
▁September	-6158
▁niezbędne	-6159
▁resources	-6160
.'	-6161
90	-6162
fie	-6163
▁Lis	-6164
▁Carl	-6165
▁błąd	-6166
▁kart	-6167
▁szac	-6168
▁Ponad	-6169
▁honor	-6170
▁udało	-6171
▁coffee	-6172
▁confir	-6173
▁według	-6174
▁zastan	-6175
owaliśmy	-6176
▁przyjech	-6177
▁właściwe	-6178
▁character	-6179
ye	-6180
kaw	-6181
gest	-6182
ient	-6183
ives	-6184
nień	-6185
▁Mac	-6186
▁Res	-6187
▁sił	-6188
▁wró	-6189
inger	-6190
▁znów	-6191
czeniu	-6192
▁calls	-6193
▁ciało	-6194
▁mouth	-6195
▁patrz	-6196
▁honest	-6197
▁przyjem	-6198
▁zdrowia	-6199
▁reference	-6200
▁powinieneś	-6201
▁głę	-6202
▁hey	-6203
epend	-6204
wność	-6205
krótce	-6206
▁visit	-6207
▁belong	-6208
▁forgot	-6209
▁Rozumiem	-6210
▁proposal	-6211
▁zrobiłem	-6212
dopodobnie	-6213
oh	-6214
bel	-6215
lii	-6216
ilar	-6217
urze	-6218
▁cry	-6219
acity	-6220
gment	-6221
niona	-6222
▁Zach	-6223
▁biał	-6224
▁phys	-6225
▁prot	-6226
▁repe	-6227
▁suit	-6228
owałeś	-6229
▁Kapit	-6230
▁piece	-6231
▁waste	-6232
▁cztery	-6233
▁effort	-6234
▁kategor	-6235
▁panowie	-6236
▁chciałam	-6237
▁pracować	-6238
▁happening	-6239
jny	-6240
ądu	-6241
źni	-6242
▁ir	-6243
▁Eng	-6244
▁faj	-6245
▁sen	-6246
▁dokt	-6247
▁held	-6248
▁krzy	-6249
liance	-6250
▁Harry	-6251
▁November	-6252
▁problemy	-6253
ias	-6254
liwy	-6255
▁foc	-6256
▁mer	-6257
▁mle	-6258
utely	-6259
▁tort	-6260
▁uczy	-6261
verage	-6262
▁maszy	-6263
▁metod	-6264
▁podmiot	-6265
▁spodzie	-6266
▁wyłącznie	-6267
▁człowiekiem	-6268
▁producentów	-6269
isy	-6270
▁wą	-6271
anda	-6272
inie	-6273
ping	-6274
▁aim	-6275
▁mal	-6276
▁pul	-6277
▁tat	-6278
ached	-6279
stety	-6280
▁issues	-6281
▁maksym	-6282
▁myśleć	-6283
▁zależy	-6284
▁changes	-6285
▁several	-6286
▁charakter	-6287
▁dangerous	-6288
▁rozporządzeniem	-6289
▁35	-6290
alną	-6291
give	-6292
wise	-6293
▁Pój	-6294
▁fit	-6295
▁gad	-6296
kazyw	-6297
rench	-6298
▁Mówi	-6299
▁feed	-6300
▁krót	-6301
▁stęż	-6302
▁Witaj	-6303
▁dowód	-6304
▁korzy	-6305
▁tajem	-6306
▁thera	-6307
▁zapro	-6308
▁ostate	-6309
▁uzasad	-6310
▁amazing	-6311
▁zmienić	-6312
▁Whatever	-6313
▁materiał	-6314
▁relating	-6315
▁wystarczy	-6316
▁investment	-6317
▁Ra	-6318
▁Lea	-6319
riage	-6320
unkow	-6321
▁Tato	-6322
▁wyso	-6323
▁wątp	-6324
▁kwali	-6325
▁radio	-6326
▁samot	-6327
▁zawod	-6328
▁reform	-6329
▁vehicle	-6330
▁zapobie	-6331
▁received	-6332
▁difference	-6333
aki	-6334
itz	-6335
tyw	-6336
orld	-6337
▁Isn	-6338
▁blow	-6339
▁clot	-6340
▁fant	-6341
▁pali	-6342
▁sele	-6343
▁tytu	-6344
▁wall	-6345
ającej	-6346
ającym	-6347
▁klucz	-6348
▁odkry	-6349
▁pomog	-6350
ującego	-6351
▁Miałem	-6352
▁applied	-6353
▁dotyczy	-6354
▁project	-6355
▁reasons	-6356
▁political	-6357
▁powinienem	-6358
▁administrat	-6359
hol	-6360
iać	-6361
cisz	-6362
rick	-6363
ówki	-6364
▁wyż	-6365
ature	-6366
▁Szyb	-6367
▁ofer	-6368
▁reco	-6369
▁song	-6370
▁vote	-6371
rastru	-6372
▁Wtedy	-6373
▁plane	-6374
▁przek	-6375
▁późno	-6376
▁komple	-6377
▁nobody	-6378
▁publis	-6379
▁mieście	-6380
▁Kochanie	-6381
▁producers	-6382
▁oczywiście	-6383
▁immediately	-6384
▁pracowników	-6385
▁institutions	-6386
eli	-6387
▁32	-6388
▁37	-6389
anta	-6390
hood	-6391
ught	-6392
▁Aby	-6393
▁Say	-6394
▁Brus	-6395
▁ring	-6396
▁wrześ	-6397
▁letter	-6398
▁listop	-6399
▁window	-6400
▁include	-6401
▁medical	-6402
▁Świetnie	-6403
▁niniejszym	-6404
▁związanych	-6405
gor	-6406
uts	-6407
▁pic	-6408
▁rzą	-6409
▁link	-6410
wencji	-6411
▁Sarah	-6412
▁Under	-6413
▁basic	-6414
▁obraz	-6415
▁bodies	-6416
▁decyzja	-6417
▁Brussels	-6418
▁operation	-6419
bec	-6420
mar	-6421
rab	-6422
wij	-6423
brać	-6424
okół	-6425
rodu	-6426
▁Hon	-6427
▁jaj	-6428
▁uda	-6429
szysz	-6430
▁Eric	-6431
▁exch	-6432
▁wyba	-6433
▁often	-6434
▁przys	-6435
▁sales	-6436
orzenia	-6437
▁areszt	-6438
▁caught	-6439
▁diabła	-6440
▁ostroż	-6441
▁wyciąg	-6442
▁dziecka	-6443
▁dopuszcz	-6444
▁dziedzinie	-6445
asa	-6446
kre	-6447
woń	-6448
▁48	-6449
▁mm	-6450
▁Bad	-6451
▁Dar	-6452
▁dys	-6453
▁Wyst	-6454
▁born	-6455
▁Super	-6456
▁music	-6457
▁ogląd	-6458
▁pójść	-6459
▁train	-6460
▁Cieszę	-6461
▁charge	-6462
▁latach	-6463
▁remind	-6464
▁restru	-6465
▁rodzic	-6466
▁ryzyko	-6467
▁zakres	-6468
▁realize	-6469
▁różnych	-6470
▁wniosku	-6471
▁Everyone	-6472
▁pressure	-6473
▁widzenia	-6474
▁wychodzi	-6475
▁reprezent	-6476
▁competition	-6477
die	-6478
▁Pl	-6479
aled	-6480
kowi	-6481
oura	-6482
▁dup	-6483
▁ess	-6484
owani	-6485
owały	-6486
▁Prof	-6487
▁fran	-6488
▁maja	-6489
▁poch	-6490
▁skąd	-6491
aniale	-6492
czność	-6493
uments	-6494
▁stare	-6495
▁trial	-6496
unities	-6497
▁Daniel	-6498
▁killer	-6499
▁negoti	-6500
▁szkole	-6501
▁territ	-6502
▁fishing	-6503
▁minimum	-6504
▁zarządzania	-6505
▁establishing	-6506
uz	-6507
▁500	-6508
▁fre	-6509
▁zre	-6510
house	-6511
▁Tran	-6512
▁wizy	-6513
▁wraz	-6514
▁Niekt	-6515
▁condu	-6516
▁drugi	-6517
▁kości	-6518
▁proud	-6519
▁write	-6520
▁circum	-6521
▁niepraw	-6522
▁procedur	-6523
▁starting	-6524
▁increased	-6525
▁wiadomości	-6526
▁oś	-6527
okój	-6528
reme	-6529
▁fam	-6530
▁hid	-6531
▁vot	-6532
▁wet	-6533
▁zła	-6534
▁hasn	-6535
▁hero	-6536
▁repl	-6537
▁stri	-6538
▁wpły	-6539
▁Stand	-6540
▁brzmi	-6541
▁dance	-6542
▁kryzy	-6543
▁model	-6544
▁plans	-6545
▁pokój	-6546
▁wypeł	-6547
arzenia	-6548
▁względ	-6549
szczenia	-6550
▁cholery	-6551
▁disease	-6552
▁wchodzi	-6553
▁obchodzi	-6554
▁potrzeby	-6555
▁wonderful	-6556
▁agricultural	-6557
▁33	-6558
▁Fo	-6559
cher	-6560
well	-6561
śród	-6562
▁ang	-6563
▁sąd	-6564
ctors	-6565
kowej	-6566
▁Bruk	-6567
▁Chol	-6568
▁tata	-6569
▁Court	-6570
▁Mówię	-6571
▁broni	-6572
▁firmy	-6573
▁ziemi	-6574
olution	-6575
▁Inform	-6576
▁miałam	-6577
▁points	-6578
▁regist	-6579
▁conclud	-6580
▁potencj	-6581
▁pytania	-6582
▁totally	-6583
▁zamknię	-6584
▁Przecież	-6585
▁anywhere	-6586
▁pamiętam	-6587
▁condition	-6588
▁całkowicie	-6589
▁opportunity	-6590
▁października	-6591
rzej	-6592
▁Ass	-6593
▁Ham	-6594
▁Oto	-6595
▁Zas	-6596
▁ill	-6597
ająca	-6598
ństwo	-6599
▁Jane	-6600
▁fell	-6601
▁loss	-6602
▁pozn	-6603
▁surv	-6604
▁szan	-6605
arling	-6606
▁Dobry	-6607
▁March	-6608
▁Proto	-6609
▁Widzę	-6610
▁broke	-6611
▁miało	-6612
▁ofiar	-6613
▁szkol	-6614
▁Brukse	-6615
▁altern	-6616
▁ciężko	-6617
▁custom	-6618
▁search	-6619
esterday	-6620
▁spotkać	-6621
▁station	-6622
▁maintain	-6623
▁niesamow	-6624
▁zrobiłeś	-6625
▁Europejską	-6626
▁substancji	-6627
!"	-6628
cell	-6629
czni	-6630
hold	-6631
rzał	-6632
unek	-6633
view	-6634
▁Cam	-6635
▁Win	-6636
▁gor	-6637
▁Jake	-6638
▁anty	-6639
▁miło	-6640
▁sell	-6641
atives	-6642
▁Think	-6643
▁Tommy	-6644
▁sieci	-6645
▁spend	-6646
▁urzęd	-6647
▁uwagi	-6648
▁listed	-6649
▁urządz	-6650
▁Ponadto	-6651
▁meaning	-6652
▁prezent	-6653
▁skarbie	-6654
▁Myślałam	-6655
▁monitoring	-6656
10	-6657
ID	-6658
arę	-6659
▁95	-6660
▁Den	-6661
▁fat	-6662
itely	-6663
ięciu	-6664
▁Comp	-6665
▁Kole	-6666
▁busy	-6667
▁usły	-6668
ipment	-6669
▁Inter	-6670
▁Obiec	-6671
▁floor	-6672
▁kawał	-6673
▁skoro	-6674
▁depart	-6675
▁dobrym	-6676
▁mogłem	-6677
▁pojazd	-6678
▁scient	-6679
▁stronę	-6680
bilities	-6681
▁Trzymaj	-6682
▁Komitetu	-6683
▁document	-6684
▁submitted	-6685
▁powiedziałem	-6686
do	-6687
maw	-6688
you	-6689
▁AN	-6690
▁TV	-6691
cami	-6692
iami	-6693
▁idź	-6694
▁sad	-6695
▁wyg	-6696
ribed	-6697
▁pack	-6698
▁emerg	-6699
▁fixed	-6700
▁tired	-6701
▁voice	-6702
▁French	-6703
▁chcemy	-6704
▁roboty	-6705
▁network	-6706
▁zapewnić	-6707
▁standards	-6708
▁themselves	-6709
▁organizacji	-6710
oe	-6711
uh	-6712
ża	-6713
lej	-6714
mas	-6715
▁3.	-6716
▁Ms	-6717
ills	-6718
nieć	-6719
rzch	-6720
▁Naz	-6721
iture	-6722
▁cris	-6723
▁kick	-6724
▁rady	-6725
▁wyna	-6726
▁Takie	-6727
▁adres	-6728
▁dzien	-6729
▁należ	-6730
▁samej	-6731
▁thous	-6732
▁whose	-6733
▁wyraź	-6734
▁zanie	-6735
▁daleko	-6736
▁dziwne	-6737
▁middle	-6738
▁przeży	-6739
▁Europie	-6740
▁evening	-6741
▁kwestii	-6742
▁seconds	-6743
▁cokolwiek	-6744
▁spotkanie	-6745
▁Powiedziałem	-6746
hen	-6747
ppy	-6748
cket	-6749
▁300	-6750
▁Bur	-6751
▁Mie	-6752
erved	-6753
▁Szuk	-6754
▁indy	-6755
▁ocen	-6756
▁shop	-6757
▁wytw	-6758
arówno	-6759
▁Dalej	-6760
▁glass	-6761
▁objaw	-6762
▁uważa	-6763
▁handlu	-6764
▁krajów	-6765
▁negocj	-6766
▁spirit	-6767
▁wykonaw	-6768
▁historii	-6769
▁sprawied	-6770
▁watching	-6771
▁pierwszym	-6772
▁finansowych	-6773
▁legislation	-6774
▁odpowiednie	-6775
▁powiedziałeś	-6776
4.	-6777
men	-6778
mon	-6779
rza	-6780
wid	-6781
▁70	-6782
▁ow	-6783
▁uf	-6784
aren	-6785
atrz	-6786
atów	-6787
rzyj	-6788
▁Lie	-6789
▁bli	-6790
ailed	-6791
rzesz	-6792
skimi	-6793
▁Fred	-6794
▁ceny	-6795
▁tick	-6796
▁dzies	-6797
▁obiec	-6798
▁capital	-6799
▁czujesz	-6800
▁princip	-6801
▁writing	-6802
▁zostaną	-6803
▁najpierw	-6804
▁wspaniał	-6805
▁znajdują	-6806
▁programmes	-6807
▁wiedziałem	-6808
RA	-6809
net	-6810
śla	-6811
atki	-6812
iszp	-6813
uten	-6814
vere	-6815
ędzi	-6816
▁Del	-6817
▁Pri	-6818
▁Było	-6819
▁join	-6820
▁reak	-6821
ulture	-6822
▁Czuję	-6823
▁Witam	-6824
▁kwiet	-6825
▁niewy	-6826
▁wymog	-6827
▁mówiąc	-6828
▁wyboru	-6829
▁Richard	-6830
▁allowed	-6831
▁towards	-6832
▁widział	-6833
▁zrobisz	-6834
▁capacity	-6835
▁znaczenie	-6836
▁wystarczająco	-6837
aly	-6838
▁Fl	-6839
pper	-6840
▁rób	-6841
▁Mama	-6842
▁Ukra	-6843
▁base	-6844
▁beat	-6845
▁unik	-6846
istics	-6847
▁Podob	-6848
▁faith	-6849
▁freed	-6850
▁ogrom	-6851
▁raczej	-6852
▁certific	-6853
ąp	-6854
bro	-6855
▁41	-6856
▁Mm	-6857
rate	-6858
wart	-6859
▁Zaj	-6860
▁krę	-6861
night	-6862
▁clim	-6863
▁esca	-6864
▁milk	-6865
▁pull	-6866
though	-6867
▁całej	-6868
▁moved	-6869
▁okrop	-6870
▁sugar	-6871
▁wydaw	-6872
▁higher	-6873
▁simple	-6874
▁supply	-6875
▁zrozum	-6876
▁however	-6877
▁payment	-6878
▁podejrz	-6879
▁pogadać	-6880
▁infrastru	-6881
▁knowledge	-6882
▁szczególnie	-6883
inę	-6884
atel	-6885
czes	-6886
▁Dor	-6887
▁Odd	-6888
▁Red	-6889
▁Tym	-6890
▁pak	-6891
atora	-6892
dered	-6893
dziła	-6894
▁Tego	-6895
▁feet	-6896
▁rośl	-6897
▁scen	-6898
▁soul	-6899
▁wysy	-6900
▁Skoro	-6901
▁czeka	-6902
▁lying	-6903
▁zamów	-6904
▁ladies	-6905
ological	-6906
▁obywate	-6907
▁regards	-6908
▁student	-6909
▁trakcie	-6910
▁zrobiła	-6911
▁pozwolić	-6912
gro	-6913
ozy	-6914
▁Bi	-6915
▁eg	-6916
idge	-6917
rony	-6918
rown	-6919
szeć	-6920
▁Jej	-6921
▁Mic	-6922
▁host	-6923
▁rent	-6924
▁ride	-6925
owanej	-6926
▁insul	-6927
▁pilot	-6928
▁pokry	-6929
▁sprze	-6930
▁wejść	-6931
▁wyjąt	-6932
▁Następ	-6933
▁holding	-6934
▁stopped	-6935
▁Articles	-6936
▁activity	-6937
▁criteria	-6938
▁poważnie	-6939
▁września	-6940
OD	-6941
bed	-6942
ils	-6943
iry	-6944
ulf	-6945
waj	-6946
ymy	-6947
iach	-6948
wood	-6949
▁kaz	-6950
▁las	-6951
▁złe	-6952
tykuł	-6953
wycię	-6954
ruchom	-6955
▁Twoje	-6956
▁feels	-6957
▁teach	-6958
▁zapła	-6959
▁decide	-6960
▁jakiej	-6961
▁powiąz	-6962
▁Brukseli	-6963
orządzenie	-6964
▁Republiki	-6965
▁equipment	-6966
▁potwierdz	-6967
▁procedury	-6968
▁współprac	-6969
▁Powinniśmy	-6970
lob	-6971
▁45	-6972
▁92	-6973
▁Rz	-6974
cise	-6975
▁Hol	-6976
▁Tod	-6977
▁ves	-6978
ology	-6979
▁fizy	-6980
▁rach	-6981
▁role	-6982
▁umów	-6983
owanym	-6984
▁fresh	-6985
▁zbrod	-6986
ublikow	-6987
▁Trochę	-6988
▁Trzeba	-6989
▁arrang	-6990
▁broken	-6991
▁Będziesz	-6992
▁przywozu	-6993
▁realizacji	-6994
▁środowiska	-6995
▁odpowiednio	-6996
IV	-6997
gy	-6998
źć	-6999
skon	-7000
▁dig	-7001
noważ	-7002
ource	-7003
poses	-7004
▁bron	-7005
▁chem	-7006
▁gwia	-7007
▁none	-7008
▁Potem	-7009
▁budyn	-7010
▁celem	-7011
▁dniem	-7012
▁packa	-7013
▁różne	-7014
▁słowo	-7015
nieniem	-7016
▁twoich	-7017
czeństwo	-7018
▁Welcome	-7019
▁miłości	-7020
▁poprzed	-7021
▁prevent	-7022
▁tymczas	-7023
▁Everybody	-7024
▁dziewczyny	-7025
BC	-7026
apt	-7027
cał	-7028
kop	-7029
mij	-7030
oła	-7031
▁36	-7032
▁Da	-7033
anka	-7034
empt	-7035
legł	-7036
onel	-7037
owań	-7038
▁Cle	-7039
▁USA	-7040
▁Dziś	-7041
▁Pana	-7042
▁Spot	-7043
▁South	-7044
▁autom	-7045
▁prove	-7046
▁robią	-7047
▁Powiem	-7048
▁Really	-7049
▁analys	-7050
▁contra	-7051
▁kredyt	-7052
▁obrotu	-7053
▁opowie	-7054
▁postaw	-7055
▁travel	-7056
▁mission	-7057
▁okolicz	-7058
▁osobist	-7059
▁witness	-7060
▁myślałem	-7061
▁dowiedzieć	-7062
cymi	-7063
erów	-7064
stra	-7065
▁Dwa	-7066
▁Mer	-7067
owało	-7068
▁Done	-7069
▁Mógł	-7070
▁Zrob	-7071
▁conv	-7072
▁fish	-7073
▁sier	-7074
▁wami	-7075
inform	-7076
ustain	-7077
ładzie	-7078
▁House	-7079
▁Zapom	-7080
▁aware	-7081
▁odzys	-7082
ression	-7083
▁gotowy	-7084
▁instru	-7085
▁jechać	-7086
▁telewi	-7087
▁znajom	-7088
▁suppose	-7089
▁birthday	-7090
▁dostarcz	-7091
▁finished	-7092
▁purposes	-7093
▁reported	-7094
▁framework	-7095
▁appreciate	-7096
▁manufacture	-7097
sek	-7098
alid	-7099
aret	-7100
iled	-7101
ints	-7102
▁Gru	-7103
iling	-7104
liwie	-7105
▁hung	-7106
▁szal	-7107
▁trip	-7108
▁wysł	-7109
▁zgło	-7110
▁ślad	-7111
▁źród	-7112
▁brain	-7113
▁brata	-7114
▁pełni	-7115
▁popeł	-7116
▁rodzi	-7117
▁upset	-7118
▁wiary	-7119
orzenie	-7120
▁doskon	-7121
▁favour	-7122
▁member	-7123
▁organy	-7124
▁znalez	-7125
▁dumping	-7126
▁mówiłem	-7127
▁samolot	-7128
▁Pamiętasz	-7129
▁listopada	-7130
▁zwłaszcza	-7131
▁przyszłości	-7132
▁Zg	-7133
ideo	-7134
▁biz	-7135
▁dał	-7136
▁zim	-7137
▁cash	-7138
▁Wciąż	-7139
▁dress	-7140
▁eight	-7141
▁paper	-7142
▁zasob	-7143
▁itself	-7144
▁podzię	-7145
▁przyby	-7146
▁zamiar	-7147
▁Germany	-7148
▁reports	-7149
▁rodzinę	-7150
▁similar	-7151
▁wypadek	-7152
▁wyjątkow	-7153
▁rozporządzeniu	-7154
▁34	-7155
▁Us	-7156
ford	-7157
▁Kat	-7158
▁bieg	-7159
▁choć	-7160
stairs	-7161
▁Daddy	-7162
▁entry	-7163
▁jasne	-7164
▁pewne	-7165
▁seven	-7166
▁stick	-7167
cześnie	-7168
▁Wydaje	-7169
▁agreed	-7170
▁harmon	-7171
▁podleg	-7172
▁average	-7173
▁konsult	-7174
▁persons	-7175
▁proceed	-7176
▁zdjęcie	-7177
▁internet	-7178
▁przyjaciel	-7179
▁Przynajmniej	-7180
wę	-7181
bru	-7182
bud	-7183
eks	-7184
sey	-7185
zdu	-7186
▁EF	-7187
ięci	-7188
onie	-7189
stry	-7190
unki	-7191
wasz	-7192
▁Mur	-7193
▁krw	-7194
▁squ	-7195
▁weź	-7196
zacji	-7197
▁City	-7198
▁band	-7199
▁clin	-7200
▁król	-7201
▁spod	-7202
▁Można	-7203
▁alarm	-7204
▁cierp	-7205
▁oprac	-7206
▁zeszł	-7207
▁accomp	-7208
▁crisis	-7209
▁czasem	-7210
▁przewo	-7211
▁Artykuł	-7212
▁driving	-7213
▁solution	-7214
▁Rozporządzenie	-7215
han	-7216
usa	-7217
▁46	-7218
iver	-7219
robi	-7220
ającą	-7221
allen	-7222
pared	-7223
▁Jeff	-7224
▁duże	-7225
▁góry	-7226
▁seat	-7227
litary	-7228
▁Three	-7229
▁doubt	-7230
▁pytań	-7231
▁finish	-7232
▁mógłby	-7233
▁unless	-7234
▁America	-7235
▁niezwyk	-7236
▁internal	-7237
▁zupełnie	-7238
▁Christmas	-7239
▁następujące	-7240
oj	-7241
vo	-7242
kus	-7243
łóż	-7244
▁3,	-7245
komu	-7246
like	-7247
▁Jen	-7248
▁Pie	-7249
▁Znam	-7250
▁inde	-7251
▁spóź	-7252
▁zabie	-7253
reszcie	-7254
▁France	-7255
▁kłopot	-7256
▁małżeń	-7257
▁oskarż	-7258
▁promot	-7259
▁sekret	-7260
▁careful	-7261
▁forever	-7262
▁zarówno	-7263
▁Remember	-7264
▁produkty	-7265
▁certainly	-7266
▁Europejska	-7267
▁definitely	-7268
▁przedstawicie	-7269
iów	-7270
oto	-7271
▁Cy	-7272
▁au	-7273
▁hy	-7274
ciek	-7275
nice	-7276
▁Hal	-7277
▁Zga	-7278
▁ant	-7279
▁mut	-7280
▁ofi	-7281
▁ryb	-7282
▁uch	-7283
▁zły	-7284
unków	-7285
▁wear	-7286
▁Group	-7287
▁below	-7288
▁matki	-7289
▁papie	-7290
atorium	-7291
▁adjust	-7292
▁celebr	-7293
▁mechan	-7294
▁najważ	-7295
▁porówn	-7296
▁częścią	-7297
▁matters	-7298
▁usually	-7299
▁zauważy	-7300
▁Najpierw	-7301
▁kwietnia	-7302
▁wsparcia	-7303
▁Widziałem	-7304
▁beginning	-7305
▁boyfriend	-7306
▁przychodzi	-7307
▁Er	-7308
▁Ud	-7309
jach	-7310
nicz	-7311
time	-7312
ytet	-7313
▁Lee	-7314
▁adv	-7315
▁kat	-7316
▁oto	-7317
▁tek	-7318
itche	-7319
▁Bądź	-7320
▁king	-7321
▁ways	-7322
▁weak	-7323
cience	-7324
nictwa	-7325
▁Patrz	-7326
▁marca	-7327
▁obtain	-7328
▁strate	-7329
szczegól	-7330
▁Central	-7331
▁Mówiłem	-7332
▁dolarów	-7333
▁godzinę	-7334
▁kidding	-7335
▁kontakt	-7336
▁citizens	-7337
▁function	-7338
▁transfer	-7339
▁przyjęcia	-7340
▁assistance	-7341
▁zobaczenia	-7342
iń	-7343
los	-7344
rój	-7345
via	-7346
aged	-7347
nemu	-7348
▁Odp	-7349
▁dos	-7350
▁wzm	-7351
angaż	-7352
▁Zrób	-7353
▁ciem	-7354
▁traf	-7355
▁Sprób	-7356
▁coraz	-7357
▁funds	-7358
▁socie	-7359
▁staff	-7360
jection	-7361
▁Doctor	-7362
▁annual	-7363
▁piosen	-7364
▁przech	-7365
▁recogn	-7366
▁władze	-7367
▁zastęp	-7368
▁imagine	-7369
▁nienawi	-7370
▁organis	-7371
▁uwierzy	-7372
▁rozpoczę	-7373
▁education	-7374
11	-7375
stu	-7376
▁43	-7377
▁TO	-7378
uses	-7379
▁Ted	-7380
▁daj	-7381
▁hyd	-7382
▁owe	-7383
▁tań	-7384
▁crim	-7385
▁spać	-7386
▁sygn	-7387
▁znać	-7388
▁categ	-7389
▁earth	-7390
▁musie	-7391
▁occur	-7392
▁Should	-7393
▁comply	-7394
▁missed	-7395
▁comfort	-7396
▁consist	-7397
▁eksport	-7398
▁surpris	-7399
▁wartość	-7400
▁wzrostu	-7401
▁zostaje	-7402
▁surprise	-7403
oo	-7404
xy	-7405
gen	-7406
ida	-7407
irt	-7408
osp	-7409
xim	-7410
▁96	-7411
▁Ve	-7412
iska	-7413
wane	-7414
łkow	-7415
▁hip	-7416
▁rom	-7417
▁und	-7418
iałaś	-7419
▁Over	-7420
▁śpie	-7421
▁Steve	-7422
▁ciąży	-7423
▁droga	-7424
▁movie	-7425
cording	-7426
▁exceed	-7427
▁flight	-7428
▁growth	-7429
▁żadnej	-7430
▁Perhaps	-7431
▁clothes	-7432
▁officer	-7433
▁studies	-7434
▁zadzwonić	-7435
eng	-7436
▁87	-7437
lisz	-7438
omen	-7439
onse	-7440
▁Czę	-7441
▁DNA	-7442
▁Mil	-7443
▁pig	-7444
▁Chwi	-7445
▁Ciąg	-7446
▁Such	-7447
▁gift	-7448
▁jour	-7449
▁obli	-7450
▁pust	-7451
▁złam	-7452
arzyło	-7453
▁Honey	-7454
▁klini	-7455
▁odrzu	-7456
▁parts	-7457
▁wśród	-7458
utenant	-7459
▁dłużej	-7460
▁scheme	-7461
▁konkret	-7462
▁approach	-7463
▁approved	-7464
▁circumst	-7465
▁included	-7466
▁provides	-7467
▁przemysł	-7468
▁According	-7469
▁interesting	-7470
▁particularly	-7471
2.	-7472
CH	-7473
lek	-7474
rim	-7475
▁39	-7476
▁OF	-7477
abil	-7478
alić	-7479
bies	-7480
cisk	-7481
roma	-7482
urat	-7483
▁ham	-7484
▁East	-7485
▁bath	-7486
▁lubi	-7487
▁slow	-7488
▁wine	-7489
acyjne	-7490
▁komis	-7491
▁rozsz	-7492
▁smart	-7493
▁tests	-7494
▁zabij	-7495
ycznych	-7496
▁Zobacz	-7497
▁odejść	-7498
▁pomocą	-7499
▁poświę	-7500
▁usługi	-7501
▁Państwo	-7502
▁Program	-7503
▁appoint	-7504
▁komunik	-7505
▁widzisz	-7506
▁zrobimy	-7507
▁approval	-7508
▁mentioned	-7509
▁objectives	-7510
▁terytorium	-7511
▁Członkowskich	-7512
'.	-7513
OL	-7514
icy	-7515
▁Ow	-7516
ause	-7517
esty	-7518
rócz	-7519
▁Ani	-7520
▁Idę	-7521
▁bul	-7522
▁fle	-7523
▁Time	-7524
▁cops	-7525
▁gold	-7526
▁kier	-7527
▁kult	-7528
czucia	-7529
fortun	-7530
▁Feder	-7531
▁drogę	-7532
▁genet	-7533
▁wycof	-7534
▁wyraż	-7535
▁Johnny	-7536
▁wstrzy	-7537
▁zacząć	-7538
▁continu	-7539
▁momencie	-7540
▁prowadzą	-7541
▁pewnością	-7542
▁prezydent	-7543
▁Chciałabym	-7544
▁girlfriend	-7545
ead	-7546
ocy	-7547
tel	-7548
▁sl	-7549
ized	-7550
orąc	-7551
uszy	-7552
▁Son	-7553
▁mąd	-7554
iable	-7555
▁Love	-7556
▁Make	-7557
▁arri	-7558
▁club	-7559
▁wska	-7560
jechać	-7561
▁Znasz	-7562
▁nazyw	-7563
▁scene	-7564
▁popros	-7565
▁robota	-7566
▁Zadzwon	-7567
▁content	-7568
▁strange	-7569
▁trzymać	-7570
▁Powinien	-7571
▁ostatnie	-7572
▁partners	-7573
▁terrible	-7574
▁yesterday	-7575
oni	-7576
rap	-7577
aven	-7578
kali	-7579
usza	-7580
▁Dem	-7581
▁oil	-7582
▁zmę	-7583
antic	-7584
ening	-7585
▁Didn	-7586
▁Skoń	-7587
▁Wasz	-7588
▁dysk	-7589
▁gorą	-7590
▁klim	-7591
▁odwo	-7592
▁skin	-7593
▁subs	-7594
łączyć	-7595
▁Billy	-7596
▁Dzien	-7597
▁World	-7598
▁quali	-7599
▁Według	-7600
▁kształ	-7601
▁opinii	-7602
▁skrzyw	-7603
▁killing	-7604
▁lekarza	-7605
▁markets	-7606
▁zaangaż	-7607
▁zadowol	-7608
orządzono	-7609
▁exchange	-7610
▁expected	-7611
▁independ	-7612
▁terminie	-7613
▁wszelkie	-7614
▁rozumiesz	-7615
▁wyjątkiem	-7616
▁postępowania	-7617
▁sprawozdanie	-7618
oks	-7619
sec	-7620
▁98	-7621
▁hi	-7622
ends	-7623
lect	-7624
▁Art	-7625
▁Hum	-7626
▁Sil	-7627
▁Van	-7628
▁har	-7629
▁sla	-7630
▁Ange	-7631
▁Once	-7632
▁Vict	-7633
▁susp	-7634
▁słod	-7635
▁term	-7636
▁marry	-7637
▁stanu	-7638
▁swear	-7639
▁zespo	-7640
▁znasz	-7641
▁lawyer	-7642
▁okresu	-7643
▁profes	-7644
▁własne	-7645
▁żołnie	-7646
▁English	-7647
▁chociaż	-7648
▁popular	-7649
▁posiada	-7650
▁przeszł	-7651
▁nazwisko	-7652
▁sektorze	-7653
▁standing	-7654
▁sytuacja	-7655
▁zostawić	-7656
▁pierwszego	-7657
aka	-7658
gów	-7659
oko	-7660
chem	-7661
ises	-7662
rzew	-7663
▁Dep	-7664
▁Oli	-7665
▁Pal	-7666
▁Raz	-7667
▁Jedy	-7668
▁trad	-7669
▁ujaw	-7670
urance	-7671
▁About	-7672
▁Byłam	-7673
▁bitch	-7674
▁bohat	-7675
▁jakąś	-7676
▁osoba	-7677
▁quiet	-7678
▁wyrzu	-7679
dumping	-7680
▁issued	-7681
▁okazji	-7682
▁przede	-7683
▁statek	-7684
▁street	-7685
▁actions	-7686
▁concent	-7687
▁created	-7688
▁kontynu	-7689
▁poniżej	-7690
▁powinni	-7691
▁przeraż	-7692
▁rodzina	-7693
▁section	-7694
▁walczyć	-7695
▁language	-7696
▁opublikow	-7697
▁wykorzystyw	-7698
▁zastosowania	-7699
adź	-7700
ots	-7701
źmi	-7702
▁US	-7703
wice	-7704
▁Lit	-7705
▁YOU	-7706
▁baz	-7707
ciple	-7708
▁Dzis	-7709
▁doll	-7710
▁huge	-7711
▁radi	-7712
▁razu	-7713
▁wake	-7714
▁Earth	-7715
▁admit	-7716
▁cudow	-7717
▁dawki	-7718
▁łatwo	-7719
itional	-7720
versity	-7721
▁Before	-7722
▁Europy	-7723
▁constru	-7724
▁powyżej	-7725
▁poziomu	-7726
▁sustain	-7727
▁Jednakże	-7728
▁członków	-7729
▁response	-7730
▁stosunku	-7731
▁szpitala	-7732
▁przesłuch	-7733
▁właściwie	-7734
▁Sporządzono	-7735
5.	-7736
aku	-7737
▁Tę	-7738
▁Ws	-7739
ened	-7740
uted	-7741
łaty	-7742
ślić	-7743
▁196	-7744
▁Gar	-7745
▁Sal	-7746
▁led	-7747
▁wez	-7748
Cause	-7749
athan	-7750
dzien	-7751
heart	-7752
ważne	-7753
▁Fine	-7754
▁Help	-7755
▁smut	-7756
▁soft	-7757
aniesz	-7758
undred	-7759
▁Przyp	-7760
▁czuje	-7761
▁ojcem	-7762
▁satis	-7763
itation	-7764
▁śmiesz	-7765
▁Cholera	-7766
▁Zamknij	-7767
▁byliśmy	-7768
▁clearly	-7769
▁demonst	-7770
▁pokazać	-7771
▁willing	-7772
▁wspomni	-7773
▁zdjęcia	-7774
▁feelings	-7775
▁fighting	-7776
▁pregnant	-7777
▁samochodu	-7778
▁territory	-7779
▁znaczenia	-7780
ez	-7781
ył	-7782
hel	-7783
came	-7784
miec	-7785
over	-7786
órze	-7787
▁Kar	-7788
▁fla	-7789
▁wag	-7790
▁wis	-7791
onymi	-7792
▁Josh	-7793
▁Last	-7794
▁guid	-7795
▁obok	-7796
▁pocz	-7797
▁usun	-7798
erykań	-7799
ycznej	-7800
▁Still	-7801
▁odnoś	-7802
▁przyd	-7803
▁reszt	-7804
▁advice	-7805
▁compla	-7806
▁podróż	-7807
▁wzajem	-7808
▁Charles	-7809
▁convers	-7810
▁defined	-7811
▁helping	-7812
▁rodzice	-7813
▁siostra	-7814
▁accounts	-7815
▁Sometimes	-7816
▁sufficient	-7817
▁responsibility	-7818
OT	-7819
ops	-7820
▁93	-7821
▁Pi	-7822
reet	-7823
year	-7824
ysłu	-7825
▁Cał	-7826
▁Met	-7827
▁aka	-7828
▁bre	-7829
▁inj	-7830
▁zje	-7831
achel	-7832
ograf	-7833
▁acqu	-7834
▁mand	-7835
▁nast	-7836
ensive	-7837
▁alloc	-7838
▁pójdę	-7839
▁saved	-7840
▁skrzy	-7841
▁solid	-7842
▁became	-7843
▁engine	-7844
▁expend	-7845
▁passed	-7846
▁constit	-7847
▁freedom	-7848
▁machine	-7849
▁Chciałam	-7850
▁Minister	-7851
▁milionów	-7852
▁projects	-7853
▁przeszka	-7854
▁documents	-7855
▁guarantee	-7856
▁regarding	-7857
▁wyglądasz	-7858
▁circumstances	-7859
ST	-7860
zo	-7861
met	-7862
nor	-7863
▁4,	-7864
illy	-7865
odem	-7866
uszu	-7867
▁Big	-7868
▁Gab	-7869
▁Lek	-7870
▁Sły	-7871
▁ble	-7872
ranoc	-7873
▁bomb	-7874
▁mass	-7875
▁mało	-7876
▁rękę	-7877
▁ulub	-7878
▁żonę	-7879
vision	-7880
▁Grand	-7881
▁coord	-7882
▁Mother	-7883
▁choose	-7884
▁device	-7885
▁drugie	-7886
▁obszar	-7887
▁zwykle	-7888
▁Zabierz	-7889
▁facilit	-7890
▁martwić	-7891
▁mężczyz	-7892
▁pracuje	-7893
▁jakiegoś	-7894
▁poinform	-7895
▁proposed	-7896
▁administra	-7897
bij	-7898
rok	-7899
vey	-7900
cker	-7901
jęte	-7902
kowy	-7903
rupt	-7904
▁Day	-7905
▁Dru	-7906
▁Sus	-7907
▁dat	-7908
eared	-7909
ujcie	-7910
▁Chap	-7911
▁bird	-7912
▁bran	-7913
▁emer	-7914
▁inni	-7915
▁małe	-7916
▁odna	-7917
▁rule	-7918
▁sied	-7919
▁wzię	-7920
dzeniu	-7921
lusion	-7922
veness	-7923
▁Leave	-7924
▁Watch	-7925
▁miały	-7926
▁miles	-7927
▁round	-7928
▁zapal	-7929
▁zbliż	-7930
ability	-7931
szędzie	-7932
▁Carter	-7933
▁double	-7934
▁propon	-7935
▁robimy	-7936
▁rozmaw	-7937
▁statku	-7938
▁elektry	-7939
▁limited	-7940
▁miesiące	-7941
▁przestań	-7942
▁żywności	-7943
▁Spokojnie	-7944
▁apartment	-7945
▁instytucji	-7946
tę	-7947
yj	-7948
▁Du	-7949
▁oh	-7950
irty	-7951
oria	-7952
łoby	-7953
▁Hmm	-7954
field	-7955
kracz	-7956
▁Lond	-7957
▁Plan	-7958
▁bied	-7959
▁mała	-7960
▁moty	-7961
ercial	-7962
nikami	-7963
ożliwe	-7964
▁Chłop	-7965
▁angry	-7966
▁fully	-7967
▁komór	-7968
▁osobą	-7969
▁podaw	-7970
▁spoty	-7971
▁zakaz	-7972
▁ludźmi	-7973
▁oczeki	-7974
▁pozwól	-7975
▁wieści	-7976
▁Chodźmy	-7977
▁challen	-7978
▁dobrego	-7979
▁kłopoty	-7980
▁oddział	-7981
▁putting	-7982
▁Niestety	-7983
▁decisions	-7984
▁stosowane	-7985
▁wszelkich	-7986
cal	-7987
óra	-7988
▁00	-7989
▁88	-7990
▁Iz	-7991
iłaś	-7992
ming	-7993
łasz	-7994
śnie	-7995
▁Lat	-7996
▁Sie	-7997
▁mig	-7998
spond	-7999
uties	-8000
▁Cont	-8001
▁Jako	-8002
▁Sher	-8003
▁Step	-8004
▁crew	-8005
▁Urzęd	-8006
▁biura	-8007
▁oficj	-8008
▁pozna	-8009
▁stole	-8010
▁walki	-8011
niczego	-8012
nionych	-8013
▁policj	-8014
▁pozwal	-8015
▁pośred	-8016
▁uważam	-8017
▁dzisiej	-8018
▁policji	-8019
▁sądzisz	-8020
▁prepared	-8021
▁tygodnie	-8022
▁marketing	-8023
▁ourselves	-8024
▁principle	-8025
▁wysokości	-8026
▁administration	-8027
.12	-8028
cky	-8029
leń	-8030
omy	-8031
rut	-8032
▁Si	-8033
atak	-8034
ibly	-8035
iced	-8036
itar	-8037
ruit	-8038
▁Bye	-8039
▁cru	-8040
▁jad	-8041
rzeni	-8042
▁Back	-8043
▁Kell	-8044
▁affe	-8045
▁arch	-8046
▁etap	-8047
▁niew	-8048
▁sami	-8049
▁vill	-8050
▁zwal	-8051
cyjnej	-8052
▁Przew	-8053
▁liter	-8054
▁przyt	-8055
▁staty	-8056
▁wrote	-8057
szedłeś	-8058
▁Robert	-8059
▁acting	-8060
▁wracać	-8061
▁forgive	-8062
▁treated	-8063
▁umożliw	-8064
▁wearing	-8065
▁zwiększ	-8066
▁interests	-8067
▁associated	-8068
▁performance	-8069
▁odpowiednich	-8070
how	-8071
▁cu	-8072
giem	-8073
ival	-8074
lder	-8075
rane	-8076
szła	-8077
▁Has	-8078
▁Out	-8079
▁lut	-8080
▁zys	-8081
atków	-8082
ulous	-8083
▁Czek	-8084
▁site	-8085
dziłam	-8086
▁Lubię	-8087
▁gives	-8088
▁lived	-8089
▁powód	-8090
▁sklep	-8091
▁wojny	-8092
owienia	-8093
▁Rachel	-8094
▁calcul	-8095
▁gotowa	-8096
▁imprez	-8097
▁talent	-8098
▁przysię	-8099
▁przywóz	-8100
▁urodzin	-8101
▁zacznie	-8102
▁zapytać	-8103
▁korzyści	-8104
▁przecież	-8105
▁zasadzie	-8106
▁zewnętrz	-8107
▁znajduje	-8108
▁ostatnich	-8109
▁wykonania	-8110
▁operations	-8111
▁ć	-8112
▁Ba	-8113
▁Wz	-8114
rona	-8115
szło	-8116
term	-8117
ywać	-8118
▁Rze	-8119
▁ocz	-8120
▁pol	-8121
▁Most	-8122
▁daje	-8123
▁dłuż	-8124
▁obni	-8125
▁path	-8126
▁podw	-8127
▁North	-8128
▁druży	-8129
▁speed	-8130
▁zakup	-8131
organiz	-8132
▁choler	-8133
▁znaczą	-8134
▁hundred	-8135
▁instead	-8136
▁postaci	-8137
▁procent	-8138
▁therapy	-8139
▁ubezpie	-8140
▁existing	-8141
▁operacji	-8142
▁powinnam	-8143
▁Wyglądasz	-8144
▁zrozumieć	-8145
▁containing	-8146
▁transportu	-8147
▁professional	-8148
▁przyjacielem	-8149
▁administrative	-8150
7.	-8151
OG	-8152
rw	-8153
erb	-8154
iną	-8155
las	-8156
ols	-8157
draw	-8158
face	-8159
wers	-8160
yond	-8161
łody	-8162
▁Amy	-8163
▁Liz	-8164
▁idę	-8165
▁Jour	-8166
▁Miał	-8167
▁Rick	-8168
▁calm	-8169
▁herb	-8170
▁meat	-8171
▁tour	-8172
bruary	-8173
cznymi	-8174
nięcie	-8175
▁Grace	-8176
▁głowę	-8177
▁influ	-8178
▁sprzę	-8179
▁wkład	-8180
▁Poland	-8181
▁caused	-8182
▁damage	-8183
▁emisji	-8184
▁terror	-8185
▁wynosi	-8186
▁society	-8187
▁Poczekaj	-8188
▁Niniejsze	-8189
▁powierzch	-8190
EP	-8191
luz	-8192
▁Nau	-8193
▁gat	-8194
▁sud	-8195
ental	-8196
imate	-8197
nować	-8198
▁boat	-8199
▁code	-8200
▁cook	-8201
yfikow	-8202
▁buddy	-8203
▁fakty	-8204
▁seksu	-8205
▁analiz	-8206
▁client	-8207
▁koszty	-8208
▁margin	-8209
▁wymaga	-8210
▁zakoch	-8211
▁correct	-8212
▁darling	-8213
▁sitting	-8214
▁transak	-8215
▁February	-8216
▁computer	-8217
▁marriage	-8218
▁property	-8219
▁systemów	-8220
▁trzecich	-8221
▁przyjęcie	-8222
IF	-8223
pid	-8224
giel	-8225
mond	-8226
obój	-8227
stic	-8228
▁pou	-8229
estic	-8230
▁blue	-8231
▁plac	-8232
▁wojs	-8233
czania	-8234
ession	-8235
łodzie	-8236
▁Paris	-8237
▁dobrą	-8238
▁dying	-8239
▁hurry	-8240
▁położ	-8241
▁przeg	-8242
▁shows	-8243
▁wątro	-8244
▁consid	-8245
▁czekać	-8246
▁likely	-8247
▁roślin	-8248
▁wyniku	-8249
▁wystaw	-8250
▁consequ	-8251
▁deserve	-8252
▁extreme	-8253
▁greater	-8254
▁percent	-8255
▁towarów	-8256
dzieliśmy	-8257
▁operator	-8258
▁recommend	-8259
▁specified	-8260
▁warunkiem	-8261
arła	-8262
inet	-8263
koda	-8264
▁Kil	-8265
▁Pap	-8266
▁Que	-8267
▁Sat	-8268
▁Zie	-8269
▁dek	-8270
dzwoń	-8271
▁Work	-8272
▁bear	-8273
▁exec	-8274
▁exer	-8275
▁wyty	-8276
▁żoną	-8277
ertain	-8278
▁Chuck	-8279
▁guest	-8280
▁kupić	-8281
▁kwoty	-8282
▁named	-8283
▁tough	-8284
▁Govern	-8285
▁affect	-8286
▁oświad	-8287
▁pociąg	-8288
▁showed	-8289
▁zezwol	-8290
▁teacher	-8291
▁Słyszałem	-8292
▁president	-8293
PA	-8294
uni	-8295
▁Di	-8296
mark	-8297
rory	-8298
went	-8299
▁Ali	-8300
▁Des	-8301
▁Sen	-8302
▁deg	-8303
▁mix	-8304
▁sko	-8305
ostęp	-8306
razić	-8307
▁ciep	-8308
▁coll	-8309
▁górę	-8310
▁rout	-8311
▁Afric	-8312
▁Wróci	-8313
▁jakoś	-8314
▁tysią	-8315
▁zająć	-8316
▁bother	-8317
▁głowie	-8318
▁narusz	-8319
▁punktu	-8320
▁siedzi	-8321
▁zgodne	-8322
▁zwycię	-8323
▁Środki	-8324
▁charges	-8325
▁distrib	-8326
▁quickly	-8327
▁directly	-8328
▁znacznie	-8329
▁emergency	-8330
▁pamiętasz	-8331
▁prowadzić	-8332
▁stosowanie	-8333
▁expenditure	-8334
▁potrzebujesz	-8335
▁Zjednoczonych	-8336
awa	-8337
dol	-8338
żył	-8339
▁Gi	-8340
anem	-8341
ligi	-8342
nęła	-8343
oważ	-8344
▁Tim	-8345
▁jaz	-8346
▁sli	-8347
▁una	-8348
usion	-8349
ychać	-8350
▁Face	-8351
▁Jaka	-8352
▁gard	-8353
▁jump	-8354
▁wysp	-8355
▁zare	-8356
arkoty	-8357
vation	-8358
▁gości	-8359
▁mogły	-8360
▁valid	-8361
▁widzi	-8362
▁wybie	-8363
▁closed	-8364
▁excuse	-8365
▁signed	-8366
▁sudden	-8367
▁trudne	-8368
▁wyniki	-8369
▁checked	-8370
▁musiała	-8371
▁poszuki	-8372
▁Somebody	-8373
▁obywatel	-8374
▁spróbować	-8375
▁substance	-8376
▁zgodności	-8377
▁zmieniają	-8378
▁absolutely	-8379
▁przepisami	-8380
35	-8381
ey	-8382
vy	-8383
łę	-8384
:30	-8385
gas	-8386
fast	-8387
inka	-8388
ordy	-8389
rief	-8390
▁Slo	-8391
▁Wło	-8392
▁flu	-8393
▁gam	-8394
▁log	-8395
niemy	-8396
▁Damn	-8397
▁Lind	-8398
▁jail	-8399
▁klub	-8400
▁nową	-8401
▁zdra	-8402
igdzie	-8403
vement	-8404
▁inicj	-8405
▁lower	-8406
▁otwar	-8407
▁wybór	-8408
▁Anyway	-8409
▁behalf	-8410
▁kontak	-8411
▁nieźle	-8412
▁orders	-8413
▁stwier	-8414
▁college	-8415
▁idziesz	-8416
▁ludziom	-8417
▁propozy	-8418
▁zobaczy	-8419
▁Official	-8420
▁original	-8421
▁pleasure	-8422
▁sporządz	-8423
▁dzieckiem	-8424
▁najlepiej	-8425
▁potrzebujemy	-8426
▁wymienionych	-8427
baw	-8428
ids	-8429
▁CN	-8430
▁Ot	-8431
cimy	-8432
koch	-8433
ower	-8434
▁Jud	-8435
▁Lon	-8436
▁Mel	-8437
▁Ron	-8438
▁Roy	-8439
▁dok	-8440
▁ono	-8441
▁pił	-8442
aling	-8443
rania	-8444
▁Joey	-8445
▁Kate	-8446
▁Nied	-8447
▁zech	-8448
widual	-8449
▁Kevin	-8450
▁Macie	-8451
▁Spotk	-8452
▁disco	-8453
▁docho	-8454
▁fired	-8455
▁media	-8456
▁sześć	-8457
umienie	-8458
▁Author	-8459
▁Uważaj	-8460
▁doktor	-8461
▁duties	-8462
▁groups	-8463
▁jakich	-8464
▁Without	-8465
▁hearing	-8466
▁keeping	-8467
▁pozycji	-8468
▁argument	-8469
▁mieliśmy	-8470
▁następnie	-8471
▁odpowiedź	-8472
▁widziałam	-8473
▁właścicie	-8474
▁zatrzymać	-8475
▁indywidual	-8476
▁technology	-8477
▁pochodzenia	-8478
▁implementing	-8479
bin	-8480
biam	-8481
jemu	-8482
kość	-8483
noon	-8484
orku	-8485
▁Aug	-8486
▁Ban	-8487
▁Emi	-8488
▁Han	-8489
▁Lar	-8490
▁dół	-8491
oster	-8492
ująca	-8493
zupeł	-8494
▁Bogu	-8495
▁Norm	-8496
▁evil	-8497
▁gang	-8498
▁męża	-8499
▁Czyli	-8500
▁defic	-8501
▁doros	-8502
▁posie	-8503
▁wspie	-8504
issions	-8505
▁beyond	-8506
▁church	-8507
▁strzel	-8508
▁wielki	-8509
▁Whereas	-8510
▁kolację	-8511
▁Internet	-8512
▁przestać	-8513
▁Jesteście	-8514
▁Wystarczy	-8515
▁przewodniczący	-8516
.5	-8517
▁85	-8518
▁śm	-8519
cydu	-8520
omas	-8521
▁Ell	-8522
▁asp	-8523
posaż	-8524
▁High	-8525
▁Open	-8526
▁Phil	-8527
▁Shut	-8528
iction	-8529
▁becom	-8530
▁córka	-8531
▁focus	-8532
▁stage	-8533
▁szale	-8534
▁wolno	-8535
▁London	-8536
▁Prawie	-8537
▁dostar	-8538
▁dowody	-8539
▁niewin	-8540
▁Journal	-8541
▁species	-8542
▁zasobów	-8543
▁Therefore	-8544
▁nauczycie	-8545
▁pierwszej	-8546
▁programów	-8547
▁działalność	-8548
ado	-8549
asu	-8550
jąc	-8551
▁UN	-8552
ales	-8553
▁Air	-8554
▁Ist	-8555
▁Kaz	-8556
▁Kup	-8557
▁Ver	-8558
▁gów	-8559
▁sac	-8560
▁sty	-8561
▁wiz	-8562
▁zmy	-8563
rated	-8564
▁Chry	-8565
▁Inst	-8566
▁Sche	-8567
▁Spra	-8568
▁Want	-8569
▁bast	-8570
▁cała	-8571
▁tęsk	-8572
ografi	-8573
▁dziel	-8574
▁screw	-8575
niejszy	-8576
▁exclud	-8577
▁simply	-8578
▁values	-8579
▁wrócił	-8580
▁zajmie	-8581
▁zastrze	-8582
▁amerykań	-8583
▁powinnaś	-8584
▁Detective	-8585
▁kategorii	-8586
▁najlepsze	-8587
▁Convention	-8588
pół	-8589
wem	-8590
▁ON	-8591
adow	-8592
ault	-8593
cony	-8594
niła	-8595
text	-8596
▁Brz	-8597
▁Rog	-8598
▁fab	-8599
cking	-8600
▁Each	-8601
▁Ryan	-8602
▁skup	-8603
▁szer	-8604
ervous	-8605
▁China	-8606
▁Clark	-8607
▁Dziew	-8608
▁ilość	-8609
▁innej	-8610
▁liber	-8611
▁pojed	-8612
▁złego	-8613
ription	-8614
▁Ciągle	-8615
▁emeryt	-8616
▁hoping	-8617
▁liczby	-8618
▁powers	-8619
▁tablet	-8620
▁Colonel	-8621
▁recogni	-8622
▁written	-8623
▁Anything	-8624
▁kierunku	-8625
▁policies	-8626
▁płatności	-8627
▁warunkach	-8628
▁connection	-8629
.6	-8630
ban	-8631
lyn	-8632
▁wt	-8633
gery	-8634
▁Wyp	-8635
▁cóż	-8636
▁ear	-8637
▁ice	-8638
▁Move	-8639
▁note	-8640
▁piek	-8641
▁rich	-8642
▁samp	-8643
▁siły	-8644
▁unij	-8645
▁Chris	-8646
▁Uwiel	-8647
▁blame	-8648
▁byłby	-8649
▁chick	-8650
▁frequ	-8651
▁retur	-8652
▁trick	-8653
alności	-8654
ountain	-8655
unction	-8656
▁advant	-8657
▁checks	-8658
▁faceta	-8659
▁finger	-8660
▁martwi	-8661
▁online	-8662
▁figured	-8663
▁mieszka	-8664
▁military	-8665
▁promised	-8666
▁essential	-8667
▁powstrzym	-8668
▁prawdziwe	-8669
▁przemysłu	-8670
▁większość	-8671
▁applications	-8672
być	-8673
▁42	-8674
▁łą	-8675
ague	-8676
kier	-8677
lear	-8678
▁Dis	-8679
▁Dom	-8680
▁Jez	-8681
▁Ken	-8682
▁cab	-8683
▁egg	-8684
▁poż	-8685
▁tea	-8686
pects	-8687
ędzie	-8688
ściem	-8689
▁Cały	-8690
▁hide	-8691
▁klas	-8692
▁prim	-8693
▁spyt	-8694
▁wers	-8695
chodzie	-8696
▁bought	-8697
▁gdybym	-8698
▁hungry	-8699
▁patrzy	-8700
▁podkre	-8701
▁rozkaz	-8702
▁sukces	-8703
▁zdanie	-8704
▁Another	-8705
▁customs	-8706
▁sprawdz	-8707
▁followed	-8708
▁mieszkań	-8709
▁notified	-8710
▁świadect	-8711
▁described	-8712
▁przyszedł	-8713
▁recommended	-8714
▁contribution	-8715
mo	-8716
zwo	-8717
ćmi	-8718
niał	-8719
rzem	-8720
▁Być	-8721
▁Otw	-8722
▁Pyt	-8723
▁dan	-8724
▁kos	-8725
▁Hall	-8726
▁Sądz	-8727
▁bott	-8728
▁copy	-8729
▁emot	-8730
▁hall	-8731
▁opar	-8732
▁pred	-8733
▁sake	-8734
▁ułat	-8735
▁vers	-8736
ground	-8737
▁Miesz	-8738
▁joint	-8739
▁store	-8740
▁uszko	-8741
arently	-8742
niejsza	-8743
▁events	-8744
▁kontra	-8745
▁oznacz	-8746
▁progra	-8747
▁wpływu	-8748
▁wybuch	-8749
▁choroby	-8750
▁concern	-8751
▁procesu	-8752
▁chłopaki	-8753
▁favorite	-8754
▁niektóre	-8755
▁niepożąd	-8756
▁pojazdów	-8757
▁stosować	-8758
▁published	-8759
▁arrangements	-8760
RE	-8761
bun	-8762
idł	-8763
rer	-8764
▁Og	-8765
▁Cra	-8766
▁Dos	-8767
▁Kur	-8768
▁Sit	-8769
▁sea	-8770
nicze	-8771
tures	-8772
▁Chin	-8773
▁lack	-8774
▁load	-8775
▁synu	-8776
▁ukra	-8777
ternal	-8778
▁Check	-8779
▁equal	-8780
▁Agency	-8781
▁chorob	-8782
▁raport	-8783
▁submit	-8784
▁balance	-8785
▁benefit	-8786
▁sektora	-8787
▁wkrótce	-8788
▁wyposaż	-8789
▁zmienia	-8790
▁Protocol	-8791
▁analysis	-8792
▁całkowit	-8793
▁designed	-8794
▁objętych	-8795
▁rozszerz	-8796
▁strategy	-8797
▁uczestni	-8798
▁względem	-8799
▁afternoon	-8800
▁concluded	-8801
▁injection	-8802
▁Lieutenant	-8803
▁principles	-8804
▁bezpośrednio	-8805
▁prawdopodobnie	-8806
0,	-8807
SE	-8808
Nie	-8809
ems	-8810
mat	-8811
off	-8812
▁CH	-8813
▁IS	-8814
▁IT	-8815
ingu	-8816
kazy	-8817
▁Sub	-8818
▁chę	-8819
awiać	-8820
▁Show	-8821
▁kuch	-8822
▁mani	-8823
▁odpo	-8824
▁zest	-8825
▁Eddie	-8826
▁ciast	-8827
▁drugą	-8828
▁green	-8829
▁krzyw	-8830
▁names	-8831
▁stuck	-8832
▁wcale	-8833
czeniem	-8834
▁Kiedyś	-8835
▁System	-8836
▁rozwój	-8837
▁sektor	-8838
▁settle	-8839
szczenie	-8840
▁command	-8841
▁energet	-8842
▁justice	-8843
▁numbers	-8844
▁detailed	-8845
▁myślałam	-8846
▁skorzyst	-8847
▁obywateli	-8848
▁konkurencji	-8849
▁authorisation	-8850
▁ya	-8851
arka	-8852
bran	-8853
eryn	-8854
▁Cel	-8855
▁Jan	-8856
▁sem	-8857
▁wyw	-8858
▁żał	-8859
▁żąd	-8860
orage	-8861
rzest	-8862
▁Lecz	-8863
▁cast	-8864
▁doch	-8865
▁wsty	-8866
arlier	-8867
▁Jutro	-8868
▁White	-8869
▁czyli	-8870
▁democ	-8871
▁entit	-8872
▁judge	-8873
▁match	-8874
▁types	-8875
▁worst	-8876
▁wskaź	-8877
▁zagra	-8878
▁Island	-8879
▁battle	-8880
▁demand	-8881
▁laying	-8882
▁lovely	-8883
▁podjąć	-8884
▁uzupeł	-8885
▁dostępu	-8886
▁nervous	-8887
▁suspect	-8888
▁criminal	-8889
▁przyznać	-8890
▁konsument	-8891
▁krajowych	-8892
▁przekazyw	-8893
▁agreements	-8894
▁commercial	-8895
▁poszczegól	-8896
EG	-8897
nó	-8898
ENT	-8899
You	-8900
ela	-8901
gno	-8902
▁75	-8903
▁Up	-8904
▁dź	-8905
cząć	-8906
ilty	-8907
jące	-8908
niad	-8909
▁000	-8910
▁Val	-8911
▁hyp	-8912
ender	-8913
ivity	-8914
▁Czyż	-8915
▁Data	-8916
▁Oper	-8917
▁Whoa	-8918
▁dial	-8919
▁dump	-8920
▁fulf	-8921
▁gorz	-8922
▁heav	-8923
▁seks	-8924
▁słów	-8925
ładnie	-8926
▁Carol	-8927
▁artic	-8928
▁chemi	-8929
▁expos	-8930
▁pharm	-8931
▁toler	-8932
▁zagin	-8933
ossible	-8934
▁Wiecie	-8935
▁former	-8936
▁mogłam	-8937
▁mówiła	-8938
▁niczym	-8939
▁places	-8940
▁tempor	-8941
atherine	-8942
▁przyjść	-8943
▁walking	-8944
▁związek	-8945
▁obszarze	-8946
▁positive	-8947
▁withdraw	-8948
▁materials	-8949
▁determined	-8950
▁dziewczyną	-8951
▁przestrzeg	-8952
▁substances	-8953
ex	-8954
ya	-8955
zz	-8956
bli	-8957
jud	-8958
owl	-8959
pre	-8960
rif	-8961
łka	-8962
▁Bab	-8963
▁Dod	-8964
▁Nag	-8965
▁Org	-8966
▁bot	-8967
▁owo	-8968
arily	-8969
▁Anna	-8970
▁Jord	-8971
▁Sama	-8972
▁beer	-8973
▁sale	-8974
▁whom	-8975
▁wios	-8976
kujemy	-8977
▁Byłeś	-8978
▁Trzym	-8979
▁Zatem	-8980
▁assum	-8981
▁demok	-8982
▁embar	-8983
▁innow	-8984
▁intel	-8985
▁loves	-8986
▁odpad	-8987
▁reven	-8988
▁video	-8989
▁władz	-8990
▁żaden	-8991
▁Miałam	-8992
▁assets	-8993
▁compon	-8994
▁naukow	-8995
▁przejm	-8996
▁Czasami	-8997
▁Nazywam	-8998
▁encoura	-8999
▁fantast	-9000
▁heading	-9001
▁perhaps	-9002
▁referen	-9003
▁trzecie	-9004
▁various	-9005
▁miesiąca	-9006
▁obejmuje	-9007
▁statement	-9008
-3	-9009
AM	-9010
▁97	-9011
▁Ap	-9012
host	-9013
▁Kir	-9014
▁kas	-9015
▁kla	-9016
▁lif	-9017
▁syp	-9018
ałbym	-9019
ięcie	-9020
yczny	-9021
▁Brak	-9022
▁Dave	-9023
▁Mają	-9024
▁Tech	-9025
▁Wych	-9026
▁cand	-9027
▁geni	-9028
▁konf	-9029
▁mate	-9030
▁seek	-9031
niania	-9032
▁Allah	-9033
▁Black	-9034
▁Dzwon	-9035
▁decla	-9036
▁freak	-9037
▁kocha	-9038
▁range	-9039
▁sympt	-9040
▁tight	-9041
▁akapit	-9042
▁elimin	-9043
▁formie	-9044
▁source	-9045
▁szukać	-9046
▁uderzy	-9047
▁weapon	-9048
▁wspier	-9049
▁chronić	-9050
▁homolog	-9051
▁wnioski	-9052
▁innocent	-9053
▁mechaniz	-9054
▁ogranicz	-9055
▁planning	-9056
▁przyjdzie	-9057
▁słyszałem	-9058
▁szczęśliwy	-9059
▁wiedziałam	-9060
▁znajdziemy	-9061
▁powstrzymać	-9062
8.	-9063
kł	-9064
▁SM	-9065
ficj	-9066
osis	-9067
rial	-9068
▁Lin	-9069
▁Rad	-9070
▁Run	-9071
▁Sze	-9072
▁VII	-9073
▁Wyj	-9074
▁nog	-9075
itude	-9076
stood	-9077
▁disp	-9078
▁rolę	-9079
▁słoń	-9080
▁usią	-9081
▁Chief	-9082
▁Pójdę	-9083
▁Today	-9084
▁behav	-9085
▁myślą	-9086
▁nagle	-9087
▁relax	-9088
▁wirus	-9089
▁wysił	-9090
▁znisz	-9091
▁Świat	-9092
ivalent	-9093
▁Martin	-9094
▁Prawda	-9095
▁border	-9096
▁heaven	-9097
▁miałeś	-9098
▁odstęp	-9099
▁zachow	-9100
▁Podczas	-9101
▁miesiąc	-9102
▁narkoty	-9103
▁odnoszą	-9104
▁setting	-9105
▁terrory	-9106
▁domestic	-9107
▁replaced	-9108
▁vehicles	-9109
▁wymagania	-9110
▁Powinieneś	-9111
▁dziewczynę	-9112
▁processing	-9113
▁Przewodniczą	-9114
▁przewidziane	-9115
▁organisations	-9116
ucz	-9117
▁ST	-9118
.199	-9119
erty	-9120
rass	-9121
stów	-9122
tych	-9123
▁bos	-9124
▁kno	-9125
▁sin	-9126
▁utw	-9127
▁van	-9128
encja	-9129
icago	-9130
▁Brit	-9131
▁Dokt	-9132
▁Fuck	-9133
▁Mnie	-9134
▁alko	-9135
▁pory	-9136
▁świę	-9137
▁Dokąd	-9138
▁civil	-9139
▁mogło	-9140
▁panem	-9141
▁pewny	-9142
▁shown	-9143
▁wrócę	-9144
▁zbior	-9145
▁August	-9146
▁Cooper	-9147
▁helped	-9148
▁limits	-9149
▁lutego	-9150
▁saving	-9151
▁subsid	-9152
▁Dzisiaj	-9153
▁Francis	-9154
▁jedynym	-9155
▁możecie	-9156
▁release	-9157
▁contains	-9158
▁oczywist	-9159
▁przepros	-9160
▁własnych	-9161
▁elektroni	-9162
▁przyjaciółmi	-9163
dła	-9164
sem	-9165
▁np	-9166
kien	-9167
▁Law	-9168
▁fas	-9169
▁fem	-9170
▁kot	-9171
inese	-9172
jnych	-9173
miesz	-9174
ędzia	-9175
ństwa	-9176
▁Kore	-9177
▁Księ	-9178
▁Pier	-9179
▁Taki	-9180
▁Trzy	-9181
▁bile	-9182
▁jobs	-9183
▁reve	-9184
▁size	-9185
▁wood	-9186
▁zbie	-9187
▁żony	-9188
chodzę	-9189
rowadź	-9190
óźniej	-9191
▁Brian	-9192
▁Decyz	-9193
▁broad	-9194
▁młody	-9195
▁nowej	-9196
▁planu	-9197
▁twice	-9198
▁tysię	-9199
▁wycie	-9200
▁danego	-9201
▁tender	-9202
▁wymogi	-9203
▁details	-9204
▁głównie	-9205
▁receive	-9206
▁workers	-9207
▁electric	-9208
▁sleeping	-9209
▁niespodzi	-9210
▁wiedziała	-9211
fortunately	-9212
▁compliance	-9213
▁employment	-9214
▁scientific	-9215
▁manufacturer	-9216
▁wprowadzenia	-9217
AP	-9218
▁Św	-9219
ieni	-9220
rech	-9221
▁194	-9222
▁Dra	-9223
▁Num	-9224
▁Too	-9225
▁lod	-9226
▁obo	-9227
▁oce	-9228
▁rum	-9229
iency	-9230
ropon	-9231
▁cich	-9232
▁najp	-9233
▁remo	-9234
▁resz	-9235
▁samą	-9236
▁Żeby	-9237
nieniu	-9238
owarzy	-9239
pienie	-9240
▁byłaś	-9241
▁feder	-9242
▁powyż	-9243
zwyczaj	-9244
▁całego	-9245
▁hiding	-9246
▁lepsze	-9247
▁subpar	-9248
▁useful	-9249
▁wiecie	-9250
▁wydost	-9251
▁zaatak	-9252
▁context	-9253
▁failure	-9254
▁foreign	-9255
▁learned	-9256
▁staying	-9257
▁udziału	-9258
▁wypadku	-9259
▁znalazł	-9260
▁approxim	-9261
▁location	-9262
▁powiadom	-9263
▁strength	-9264
▁community	-9265
▁currently	-9266
▁obviously	-9267
▁surprised	-9268
▁technologii	-9269
▁wątpliwości	-9270
▁organisation	-9271
▁subparagraph	-9272
▁Wp	-9273
ankę	-9274
more	-9275
weet	-9276
ówkę	-9277
▁Bon	-9278
▁ben	-9279
▁egz	-9280
▁kod	-9281
▁mic	-9282
▁unc	-9283
▁Cięż	-9284
▁Rose	-9285
▁kost	-9286
▁laws	-9287
▁rzad	-9288
▁skie	-9289
▁wyzw	-9290
działu	-9291
elines	-9292
▁Hiszp	-9293
▁Holly	-9294
▁Marsh	-9295
▁Uciek	-9296
▁cukru	-9297
▁delay	-9298
▁wound	-9299
▁zapis	-9300
urzenia	-9301
▁czwart	-9302
▁prawdy	-9303
▁prawem	-9304
▁schedu	-9305
▁summer	-9306
▁trudno	-9307
iability	-9308
▁Idziemy	-9309
▁centrum	-9310
▁dowodów	-9311
▁policję	-9312
▁records	-9313
▁tysięcy	-9314
▁producer	-9315
▁przenies	-9316
▁szpitalu	-9317
▁utrzymać	-9318
▁Kapitanie	-9319
▁prawdziwy	-9320
▁zależności	-9321
▁institution	-9322
▁obligations	-9323
▁powiedziałam	-9324
▁environmental	-9325
▁wspólnotowego	-9326
tt	-9327
but	-9328
▁5,	-9329
▁5.	-9330
▁65	-9331
▁ES	-9332
▁Zn	-9333
bert	-9334
obus	-9335
▁Mił	-9336
▁Wes	-9337
▁Wym	-9338
▁map	-9339
ipped	-9340
nąłem	-9341
łodzi	-9342
▁Fore	-9343
▁Zale	-9344
▁głod	-9345
▁obaw	-9346
▁pasz	-9347
niałem	-9348
▁Alice	-9349
▁Green	-9350
▁częst	-9351
▁empty	-9352
▁likes	-9353
▁truck	-9354
▁wraca	-9355
▁śniad	-9356
▁święt	-9357
chodzić	-9358
▁Chcemy	-9359
▁bullet	-9360
▁employ	-9361
▁konsek	-9362
▁locked	-9363
▁metody	-9364
▁prosić	-9365
▁zasług	-9366
▁earlier	-9367
▁herself	-9368
▁improve	-9369
▁historia	-9370
▁produced	-9371
▁projektu	-9372
▁separate	-9373
▁transact	-9374
▁wsparcie	-9375
▁fundament	-9376
▁reduction	-9377
▁wielkości	-9378
▁authorised	-9379
▁inwestycji	-9380
▁Powiedziała	-9381
▁Potrzebujemy	-9382
▁członkowskiego	-9383
AD	-9384
equ	-9385
ito	-9386
uls	-9387
wam	-9388
ósł	-9389
▁54	-9390
▁61	-9391
▁pę	-9392
ians	-9393
▁Bea	-9394
▁Mem	-9395
▁Pak	-9396
▁Zag	-9397
eding	-9398
eline	-9399
ronic	-9400
szość	-9401
▁Dyre	-9402
▁Matt	-9403
▁Więk	-9404
▁dotk	-9405
▁neck	-9406
▁nowa	-9407
▁quit	-9408
▁zrób	-9409
cement	-9410
owałaś	-9411
▁Znale	-9412
▁drugs	-9413
▁liked	-9414
▁param	-9415
▁poczu	-9416
▁wdzię	-9417
cyjnego	-9418
ruments	-9419
▁German	-9420
▁Trybun	-9421
▁Uważam	-9422
▁career	-9423
▁easier	-9424
▁instal	-9425
▁piękna	-9426
▁przemy	-9427
▁upoważ	-9428
acyjnego	-9429
▁Chinese	-9430
▁Sprawdź	-9431
▁codzien	-9432
▁complic	-9433
▁idziemy	-9434
▁mógłbym	-9435
▁respond	-9436
▁Dobranoc	-9437
▁medicine	-9438
▁pacjenta	-9439
▁stężenia	-9440
▁zrobiłam	-9441
▁interview	-9442
▁wspaniale	-9443
▁correspond	-9444
▁podziękować	-9445
▁laboratorium	-9446
lać	-9447
łos	-9448
▁CO	-9449
orne	-9450
rust	-9451
rych	-9452
▁125	-9453
▁Leo	-9454
▁ast	-9455
▁beg	-9456
▁fał	-9457
▁hun	-9458
dzony	-9459
tered	-9460
▁zgub	-9461
nóstwo	-9462
▁Japan	-9463
▁books	-9464
▁derog	-9465
▁drunk	-9466
▁effic	-9467
▁illeg	-9468
▁older	-9469
▁opart	-9470
odzenia	-9471
▁lubisz	-9472
▁mające	-9473
▁played	-9474
▁robotę	-9475
▁rozpoz	-9476
▁signal	-9477
▁szczeb	-9478
▁Chicago	-9479
▁Kingdom	-9480
▁finding	-9481
▁musieli	-9482
▁wymiany	-9483
▁komputer	-9484
▁konferen	-9485
▁skończyć	-9486
▁applicant	-9487
▁finansowe	-9488
▁państwach	-9489
▁problemów	-9490
▁przyjaciela	-9491
▁publication	-9492
IL	-9493
sol	-9494
aint	-9495
alni	-9496
▁Tay	-9497
▁ali	-9498
▁cow	-9499
▁kni	-9500
▁mln	-9501
▁poł	-9502
▁san	-9503
ilies	-9504
roszę	-9505
ville	-9506
łania	-9507
▁Four	-9508
▁Juli	-9509
▁Mill	-9510
▁acid	-9511
▁arms	-9512
▁bull	-9513
▁duży	-9514
▁yell	-9515
▁Bobby	-9516
▁Jerry	-9517
▁Jorku	-9518
▁Wasza	-9519
▁chair	-9520
▁guard	-9521
▁nieco	-9522
▁plany	-9523
▁służą	-9524
▁wasze	-9525
agement	-9526
▁Walter	-9527
▁eating	-9528
▁global	-9529
▁integr	-9530
▁kontek	-9531
▁losing	-9532
▁najgor	-9533
▁przerw	-9534
▁stabil	-9535
▁szansa	-9536
▁volume	-9537
▁neither	-9538
▁storage	-9539
▁wynagro	-9540
▁światło	-9541
▁accepted	-9542
▁przysług	-9543
▁sprzedaż	-9544
▁spotkania	-9545
▁więzienia	-9546
▁zdolności	-9547
3.	-9548
iło	-9549
ląd	-9550
oki	-9551
▁AC	-9552
hole	-9553
iety	-9554
ścił	-9555
▁Bay	-9556
▁Luc	-9557
▁Pas	-9558
▁Pog	-9559
▁Tru	-9560
▁alb	-9561
▁pró	-9562
ciągu	-9563
owaną	-9564
▁Inte	-9565
▁rock	-9566
▁wild	-9567
ionego	-9568
▁Italy	-9569
▁gradu	-9570
▁górze	-9571
▁obniż	-9572
▁uncle	-9573
▁Ladies	-9574
▁Szybko	-9575
▁Zastan	-9576
▁driver	-9577
▁escape	-9578
▁intens	-9579
▁island	-9580
▁proste	-9581
▁strukt	-9582
▁wynika	-9583
▁Przygot	-9584
▁budynku	-9585
▁działać	-9586
▁follows	-9587
▁istotne	-9588
▁kobietą	-9589
▁methods	-9590
▁noticed	-9591
▁powtarz	-9592
▁reading	-9593
▁zamiast	-9594
▁Żadnych	-9595
niejszych	-9596
▁adoption	-9597
▁clinical	-9598
▁elements	-9599
▁experien	-9600
▁przejrzy	-9601
▁relation	-9602
▁człowieku	-9603
▁dyrektywą	-9604
▁Europejski	-9605
▁population	-9606
▁przewiduje	-9607
▁przyszłość	-9608
▁quantities	-9609
▁publicznych	-9610
▁rzeczywistości	-9611
ama	-9612
kuj	-9613
ęło	-9614
▁ju	-9615
▁uj	-9616
iasz	-9617
lizy	-9618
obod	-9619
odes	-9620
▁Bes	-9621
▁Jon	-9622
▁fol	-9623
▁glu	-9624
▁lew	-9625
▁ped	-9626
▁zaś	-9627
aches	-9628
oring	-9629
uszcz	-9630
▁Cong	-9631
▁Kyle	-9632
▁Turn	-9633
▁ekon	-9634
▁spój	-9635
▁tere	-9636
dzicie	-9637
ującej	-9638
ującym	-9639
yments	-9640
▁Brzmi	-9641
▁Słuch	-9642
▁braku	-9643
▁built	-9644
▁inspe	-9645
▁narod	-9646
▁proof	-9647
▁wybra	-9648
cellent	-9649
▁Koniec	-9650
▁Thomas	-9651
▁guilty	-9652
▁ofiary	-9653
▁opened	-9654
▁prejud	-9655
▁chłopcy	-9656
▁climate	-9657
▁economy	-9658
▁zwrócić	-9659
▁Zaczekaj	-9660
▁mężczyzn	-9661
▁usłyszeć	-9662
▁wniosków	-9663
▁Dokładnie	-9664
▁Widziałeś	-9665
▁embarrass	-9666
▁indicated	-9667
ratulations	-9668
▁Wiedziałem	-9669
▁niemożliwe	-9670
▁przyjaciele	-9671
31	-9672
een	-9673
▁VI	-9674
▁Wa	-9675
alia	-9676
▁AND	-9677
▁Taa	-9678
arcie	-9679
ciami	-9680
ciłem	-9681
dztwo	-9682
gosła	-9683
istan	-9684
iście	-9685
▁Baby	-9686
▁Pete	-9687
▁Rusz	-9688
▁ptak	-9689
▁roll	-9690
▁skaz	-9691
▁wymy	-9692
▁Pokaż	-9693
▁Thing	-9694
▁Znowu	-9695
▁decre	-9696
▁deleg	-9697
▁koleś	-9698
▁mózgu	-9699
▁persp	-9700
▁podró	-9701
▁risks	-9702
▁skomp	-9703
▁trady	-9704
▁uciec	-9705
▁wstęp	-9706
▁biznes	-9707
▁latest	-9708
▁piękne	-9709
▁północ	-9710
▁zespół	-9711
▁Profess	-9712
▁package	-9713
▁przystą	-9714
▁reached	-9715
▁uniform	-9716
▁families	-9717
▁naprawić	-9718
▁recently	-9719
▁wolności	-9720
▁wyraźnie	-9721
▁seriously	-9722
▁wondering	-9723
▁impossible	-9724
▁instruments	-9725
UT	-9726
uł	-9727
lił	-9728
pij	-9729
▁Aw	-9730
▁km	-9731
aily	-9732
cili	-9733
▁Kan	-9734
▁Net	-9735
▁pet	-9736
▁wku	-9737
▁zao	-9738
astro	-9739
illed	-9740
▁Afry	-9741
▁eval	-9742
▁flat	-9743
▁grać	-9744
▁wezw	-9745
acjami	-9746
brania	-9747
▁Maria	-9748
▁Scott	-9749
▁Wiele	-9750
▁award	-9751
▁enemy	-9752
▁kurwa	-9753
▁ofert	-9754
▁stock	-9755
▁tłuma	-9756
▁zasię	-9757
▁announ	-9758
▁cieszę	-9759
▁gotowi	-9760
▁hotelu	-9761
▁chcecie	-9762
▁falling	-9763
▁poszedł	-9764
▁pozwolę	-9765
▁protest	-9766
▁spokoju	-9767
▁własnej	-9768
▁żebyśmy	-9769
▁concerns	-9770
▁drinking	-9771
▁negative	-9772
▁neighbor	-9773
▁potrzeba	-9774
▁przeczyt	-9775
▁wewnątrz	-9776
▁zapobieg	-9777
▁powiedzenia	-9778
▁przeznaczone	-9779
▁zobowiązania	-9780
hi	-9781
żu	-9782
kul	-9783
llo	-9784
tin	-9785
▁mę	-9786
cieć	-9787
olet	-9788
pare	-9789
serw	-9790
utes	-9791
vert	-9792
▁Los	-9793
▁Rzu	-9794
▁atm	-9795
▁dwo	-9796
▁dwu	-9797
▁piz	-9798
iśmie	-9799
licja	-9800
likat	-9801
oglob	-9802
▁Know	-9803
▁Mimo	-9804
▁boję	-9805
▁gdyż	-9806
▁hadn	-9807
▁liqu	-9808
▁orze	-9809
▁posp	-9810
▁pray	-9811
▁tyłu	-9812
▁unit	-9813
▁upad	-9814
▁Emily	-9815
▁nastą	-9816
▁pasaż	-9817
▁proto	-9818
▁specy	-9819
▁tells	-9820
korzyst	-9821
łocznie	-9822
▁Claire	-9823
▁Jackie	-9824
▁Zostań	-9825
▁closer	-9826
▁declar	-9827
▁dobrej	-9828
▁podzie	-9829
▁prosto	-9830
▁spójrz	-9831
▁states	-9832
▁Besides	-9833
▁airport	-9834
▁francus	-9835
▁invited	-9836
▁policja	-9837
▁przyjąć	-9838
▁reduced	-9839
▁wyników	-9840
▁zbrodni	-9841
▁doktorze	-9842
▁potrafię	-9843
▁previous	-9844
▁restaura	-9845
▁rodziców	-9846
▁szybciej	-9847
▁wspólnej	-9848
▁przechowy	-9849
▁amendments	-9850
▁rozumieniu	-9851
▁większości	-9852
▁conversation	-9853
erp	-9854
róć	-9855
szu	-9856
arzu	-9857
lach	-9858
▁Eli	-9859
▁Gib	-9860
▁Pół	-9861
▁Way	-9862
▁Wez	-9863
▁cos	-9864
▁kłó	-9865
▁tył	-9866
aries	-9867
bliżu	-9868
cznij	-9869
entów	-9870
using	-9871
▁Guys	-9872
▁Jose	-9873
▁Luke	-9874
▁końc	-9875
▁mimo	-9876
▁sand	-9877
▁wsch	-9878
alifor	-9879
rawied	-9880
śmiech	-9881
▁gotów	-9882
▁magic	-9883
▁ruchu	-9884
▁rynek	-9885
kowania	-9886
▁Rozmaw	-9887
▁angiel	-9888
▁bigger	-9889
▁gotten	-9890
▁twarzy	-9891
▁wiedzy	-9892
standing	-9893
▁Powinna	-9894
▁budżetu	-9895
▁counter	-9896
▁overall	-9897
▁planned	-9898
▁pobliżu	-9899
▁posłuch	-9900
▁zdaniem	-9901
▁National	-9902
▁bringing	-9903
▁uratować	-9904
▁wszędzie	-9905
▁znajdzie	-9906
▁zorganiz	-9907
▁breakfast	-9908
▁działanie	-9909
▁ustalenia	-9910
▁więzieniu	-9911
▁zamierzam	-9912
▁morderstwa	-9913
▁finansowania	-9914
6.	-9915
60	-9916
hy	-9917
iły	-9918
nem	-9919
pią	-9920
▁EN	-9921
▁oz	-9922
bing	-9923
puść	-9924
▁150	-9925
▁COM	-9926
▁Deb	-9927
▁Mos	-9928
▁Usp	-9929
▁Uży	-9930
▁nis	-9931
andon	-9932
mieni	-9933
▁Andy	-9934
▁Jezu	-9935
▁pręd	-9936
▁robo	-9937
▁tren	-9938
akcept	-9939
▁2006.	-9940
▁Hurry	-9941
▁Madam	-9942
▁Simon	-9943
▁dodat	-9944
▁listy	-9945
▁metal	-9946
▁raise	-9947
▁resid	-9948
▁spoke	-9949
▁wokół	-9950
▁Secret	-9951
▁compar	-9952
▁głupie	-9953
▁autobus	-9954
▁krajach	-9955
▁opening	-9956
▁opuszcz	-9957
▁surgery	-9958
▁whereas	-9959
▁historię	-9960
▁odzyskać	-9961
▁zrobiłaś	-9962
▁Cokolwiek	-9963
▁preparatu	-9964
▁priorytet	-9965
▁ustawodaw	-9966
▁evaluation	-9967
▁porównaniu	-9968
▁sweetheart	-9969
▁szczegółowe	-9970
▁jednocześnie	-9971
▁porozumienia	-9972
▁establishment	-9973
ąc	-9974
.10	-9975
abo	-9976
jął	-9977
rig	-9978
anki	-9979
atek	-9980
damn	-9981
ites	-9982
każe	-9983
▁Ash	-9984
▁Ire	-9985
▁zar	-9986
iring	-9987
ously	-9988
piesz	-9989
▁Doug	-9990
▁Pope	-9991
▁Rome	-9992
▁Zarz	-9993
▁gain	-9994
acyjny	-9995
terech	-9996
▁Mogła	-9997
▁Until	-9998
▁adult	-9999
▁laugh	-10000
▁nakaz	-10001
▁naraż	-10002
▁odmów	-10003
▁osobę	-10004
▁steps	-10005
▁straż	-10006
▁wyklu	-10007
▁zasko	-10008
▁zgłos	-10009
▁łóżka	-10010
aliście	-10011
dzeniem	-10012
▁Better	-10013
▁Gdybym	-10014
▁Wracaj	-10015
▁camera	-10016
▁gdybyś	-10017
▁prefer	-10018
▁seemed	-10019
▁zapros	-10020
▁appears	-10021
▁captain	-10022
▁czasami	-10023
▁kobietę	-10024
▁udostęp	-10025
▁zeszłym	-10026
▁Doktorze	-10027
▁klientów	-10028
▁osiągnąć	-10029
▁podatkow	-10030
▁problemu	-10031
▁telefonu	-10032
▁zapropon	-10033
▁advantage	-10034
▁badaniach	-10035
▁będziecie	-10036
▁odpowiada	-10037
▁regulamin	-10038
▁equivalent	-10039
EM	-10040
SP	-10041
eds	-10042
lec	-10043
sko	-10044
sąd	-10045
wan	-10046
wór	-10047
▁49	-10048
▁NA	-10049
endy	-10050
lady	-10051
onia	-10052
rzyd	-10053
wiej	-10054
▁Aud	-10055
▁dev	-10056
▁ela	-10057
▁fan	-10058
▁nuc	-10059
▁pad	-10060
▁pij	-10061
▁pry	-10062
fered	-10063
nocie	-10064
stein	-10065
wyraź	-10066
▁Hand	-10067
▁bare	-10068
▁boli	-10069
▁dług	-10070
▁małą	-10071
▁odde	-10072
▁upew	-10073
▁uwol	-10074
▁Króle	-10075
▁champ	-10076
▁dawno	-10077
▁horse	-10078
▁sensu	-10079
▁sight	-10080
uration	-10081
▁Mówisz	-10082
▁gościa	-10083
▁jedyny	-10084
▁paying	-10085
▁rating	-10086
▁religi	-10087
▁środek	-10088
ervation	-10089
▁kolejny	-10090
▁którymi	-10091
▁restaur	-10092
▁weapons	-10093
▁wyjścia	-10094
▁początek	-10095
▁spodziew	-10096
▁students	-10097
▁sytuację	-10098
▁thousand	-10099
▁upstairs	-10100
▁właściwy	-10101
▁Professor	-10102
▁financing	-10103
▁importance	-10104
▁certificate	-10105
▁possibility	-10106
IM	-10107
law	-10108
wok	-10109
athy	-10110
berg	-10111
nięt	-10112
▁195	-10113
▁Bie	-10114
▁Far	-10115
▁Hot	-10116
▁Tre	-10117
▁błę	-10118
▁wuj	-10119
▁Ład	-10120
itors	-10121
▁Leon	-10122
▁Stat	-10123
▁krok	-10124
▁masy	-10125
▁zmus	-10126
ulacji	-10127
▁Angel	-10128
▁Louis	-10129
▁Nasze	-10130
▁divor	-10131
▁hydro	-10132
▁matką	-10133
▁podać	-10134
▁rates	-10135
▁surve	-10136
▁truly	-10137
▁turns	-10138
▁wywoz	-10139
▁wście	-10140
▁zagad	-10141
▁zmarł	-10142
▁Second	-10143
▁Unless	-10144
▁Załącz	-10145
▁master	-10146
▁wielką	-10147
▁Russian	-10148
▁attempt	-10149
▁express	-10150
▁opowiad	-10151
▁pojedyn	-10152
▁przejść	-10153
▁reality	-10154
▁substan	-10155
▁wierzyć	-10156
▁świetle	-10157
wyraźniej	-10158
▁pierwsza	-10159
▁powerful	-10160
▁wcześnie	-10161
▁otherwise	-10162
▁finansowego	-10163
▁independent	-10164
▁stwierdzono	-10165
▁representative	-10166
OC	-10167
cra	-10168
głę	-10169
ici	-10170
▁89	-10171
czar	-10172
itle	-10173
każę	-10174
rach	-10175
stan	-10176
▁Jas	-10177
▁Vir	-10178
▁Zad	-10179
geant	-10180
ively	-10181
solid	-10182
▁Alan	-10183
▁Bart	-10184
▁Tyle	-10185
▁brut	-10186
▁joke	-10187
▁póki	-10188
▁ster	-10189
▁zakł	-10190
encies	-10191
▁Wysok	-10192
▁Zanim	-10193
▁added	-10194
▁bless	-10195
▁listę	-10196
▁reput	-10197
▁umowę	-10198
▁agency	-10199
▁create	-10200
▁failed	-10201
▁memory	-10202
▁stopni	-10203
▁sygnał	-10204
▁umrzeć	-10205
ulations	-10206
▁Chapter	-10207
▁deliver	-10208
▁potrafi	-10209
▁pójdzie	-10210
▁umiejęt	-10211
▁wymogów	-10212
▁bathroom	-10213
▁obszarów	-10214
▁powszech	-10215
▁siedzieć	-10216
▁wrażenie	-10217
▁Większość	-10218
▁prejudice	-10219
▁presented	-10220
▁Wspólnocie	-10221
▁stanowisko	-10222
▁consumption	-10223
▁undertaking	-10224
1.	-10225
gs	-10226
ann	-10227
aro	-10228
gon	-10229
hin	-10230
kam	-10231
tem	-10232
yal	-10233
zyg	-10234
▁6.	-10235
▁Hy	-10236
▁zę	-10237
0000	-10238
dzeń	-10239
elle	-10240
owne	-10241
▁Duż	-10242
▁Ooh	-10243
▁gal	-10244
▁pus	-10245
▁upd	-10246
cjami	-10247
▁Hang	-10248
▁Next	-10249
▁Szcz	-10250
▁army	-10251
▁infe	-10252
▁płac	-10253
▁race	-10254
acjach	-10255
ermine	-10256
▁Kelly	-10257
▁Przej	-10258
▁Spain	-10259
▁Sądzę	-10260
▁eligi	-10261
▁forms	-10262
▁impre	-10263
▁mikro	-10264
▁robił	-10265
▁sporo	-10266
▁teren	-10267
rowadzę	-10268
łogosła	-10269
▁Doktor	-10270
▁Pozost	-10271
▁assume	-10272
▁cancer	-10273
▁desper	-10274
▁należą	-10275
▁picked	-10276
▁recept	-10277
▁tytułu	-10278
▁Nienawi	-10279
▁Service	-10280
▁kolejne	-10281
▁statków	-10282
▁artykułu	-10283
▁compared	-10284
▁skontakt	-10285
▁sprawach	-10286
▁wyjaśnić	-10287
▁Authority	-10288
▁dodatkowe	-10289
▁introduce	-10290
▁listening	-10291
▁medicinal	-10292
▁ostatniej	-10293
▁proposals	-10294
▁strengthe	-10295
▁Powinienem	-10296
▁kontekście	-10297
▁comfortable	-10298
▁notification	-10299
▁społeczeństwa	-10300
70	-10301
UC	-10302
rak	-10303
tąd	-10304
▁iz	-10305
ager	-10306
akty	-10307
andy	-10308
back	-10309
down	-10310
▁Blo	-10311
▁Fis	-10312
▁Kol	-10313
▁Moi	-10314
▁Ram	-10315
▁Sek	-10316
▁Sur	-10317
▁Vin	-10318
▁dry	-10319
▁oca	-10320
▁sna	-10321
▁łaz	-10322
pport	-10323
▁Fort	-10324
▁Pięk	-10325
▁Shaw	-10326
▁Unia	-10327
▁Zało	-10328
▁debt	-10329
▁emoc	-10330
▁inną	-10331
▁push	-10332
▁warm	-10333
▁webs	-10334
itchen	-10335
landii	-10336
▁Szcze	-10337
▁grown	-10338
▁każdą	-10339
▁mocno	-10340
▁nowym	-10341
▁terap	-10342
▁towar	-10343
▁ulicy	-10344
▁zaczy	-10345
jestrow	-10346
ologize	-10347
▁Econom	-10348
▁Steven	-10349
▁Taylor	-10350
▁Zrobię	-10351
▁debate	-10352
▁dialog	-10353
▁distur	-10354
▁kończy	-10355
▁najwyż	-10356
▁nieleg	-10357
▁udowod	-10358
szczęśli	-10359
▁efforts	-10360
▁integra	-10361
▁pewnego	-10362
▁przesył	-10363
▁victims	-10364
▁benefits	-10365
▁informed	-10366
▁wydatków	-10367
▁zapewnia	-10368
▁determine	-10369
▁developed	-10370
▁insurance	-10371
▁najlepszy	-10372
▁requested	-10373
▁znalazłem	-10374
▁increasing	-10375
▁osiągnięcia	-10376
▁Powiedziałam	-10377
▁zatrudnienia	-10378
98	-10379
DP	-10380
loe	-10381
:00.	-10382
nieś	-10383
ogen	-10384
szem	-10385
usze	-10386
▁Bos	-10387
▁Sto	-10388
▁Uwa	-10389
▁zło	-10390
asion	-10391
czeni	-10392
kodaw	-10393
kowym	-10394
rzędu	-10395
wiele	-10396
▁1998	-10397
▁Arth	-10398
▁Ener	-10399
▁Five	-10400
▁Lucy	-10401
▁Talk	-10402
▁arty	-10403
▁gość	-10404
▁poże	-10405
▁tacy	-10406
▁wast	-10407
▁wier	-10408
▁zbud	-10409
alność	-10410
rogram	-10411
▁2005.	-10412
▁Doesn	-10413
▁Jedno	-10414
▁Kobie	-10415
▁Londy	-10416
▁Smith	-10417
▁bieżą	-10418
▁drogą	-10419
▁dziad	-10420
▁files	-10421
▁kolor	-10422
▁pocał	-10423
▁purch	-10424
arzania	-10425
▁Bezpie	-10426
▁Czasem	-10427
▁drugim	-10428
▁dyskus	-10429
▁expert	-10430
▁fellow	-10431
▁gorzej	-10432
▁lepszy	-10433
▁pasuje	-10434
▁poszło	-10435
▁raised	-10436
▁sprawą	-10437
▁Organiz	-10438
▁całości	-10439
▁mówiłeś	-10440
▁offered	-10441
▁paramet	-10442
▁próbuje	-10443
▁warning	-10444
▁większe	-10445
▁świetny	-10446
▁believed	-10447
▁carrying	-10448
▁jedzenie	-10449
▁lekarzem	-10450
▁twierdzi	-10451
▁mężczyzna	-10452
▁department	-10453
▁disappoint	-10454
▁introduced	-10455
▁najlepszym	-10456
▁pozostałych	-10457
▁powiedziałaś	-10458
39	-10459
ize	-10460
plo	-10461
▁55	-10462
▁Ev	-10463
cast	-10464
iley	-10465
know	-10466
nisz	-10467
wany	-10468
▁Doc	-10469
▁McG	-10470
▁Wid	-10471
▁taj	-10472
bołów	-10473
glądu	-10474
ionym	-10475
niosę	-10476
▁Abby	-10477
▁Case	-10478
▁Hank	-10479
▁abyś	-10480
▁dare	-10481
▁guns	-10482
▁heat	-10483
▁okrę	-10484
▁stad	-10485
▁wery	-10486
▁wyro	-10487
jected	-10488
orders	-10489
rotnie	-10490
warant	-10491
▁Barry	-10492
▁Board	-10493
▁Dawaj	-10494
▁Joint	-10495
▁córkę	-10496
▁dokąd	-10497
▁knife	-10498
▁lekar	-10499
▁scope	-10500
▁wdraż	-10501
▁widać	-10502
▁wzmoc	-10503
▁Portug	-10504
▁Russia	-10505
▁Things	-10506
▁drinka	-10507
▁placed	-10508
▁slight	-10509
▁Chociaż	-10510
▁ability	-10511
▁achieve	-10512
▁arrived	-10513
▁conform	-10514
▁książki	-10515
▁poważne	-10516
▁wejścia	-10517
▁wielkie	-10518
▁wspomin	-10519
▁świadom	-10520
ibilities	-10521
▁Security	-10522
▁chciałeś	-10523
▁external	-10524
▁payments	-10525
▁prawnych	-10526
▁emissions	-10527
▁policjant	-10528
▁spokojnie	-10529
▁undertakings	-10530
15	-10531
adz	-10532
emb	-10533
jne	-10534
pat	-10535
▁72	-10536
▁Hu	-10537
czem	-10538
dziw	-10539
enda	-10540
gged	-10541
kowa	-10542
oked	-10543
owni	-10544
▁Sun	-10545
▁Tob	-10546
▁bla	-10547
▁fot	-10548
▁gap	-10549
▁trw	-10550
▁wak	-10551
ktywa	-10552
waniu	-10553
▁Cast	-10554
▁alco	-10555
▁drew	-10556
▁kore	-10557
▁mile	-10558
▁odby	-10559
▁opak	-10560
▁rain	-10561
▁stoi	-10562
orters	-10563
▁byśmy	-10564
▁chief	-10565
▁dawna	-10566
▁estim	-10567
▁mięsa	-10568
▁refle	-10569
▁signs	-10570
▁stara	-10571
▁swego	-10572
cturing	-10573
▁Nazywa	-10574
▁Street	-10575
▁dreams	-10576
▁gwiazd	-10577
▁liczba	-10578
▁nikomu	-10579
▁odnale	-10580
▁poison	-10581
▁zaczął	-10582
równoważ	-10583
▁Policja	-10584
▁amounts	-10585
▁definic	-10586
▁dziećmi	-10587
▁entered	-10588
▁located	-10589
▁samobój	-10590
▁sources	-10591
▁wątroby	-10592
▁światła	-10593
▁movement	-10594
▁pierwszą	-10595
▁przejści	-10596
▁realized	-10597
▁większej	-10598
▁Niektórzy	-10599
▁dokumenty	-10600
▁structure	-10601
▁urządzenia	-10602
▁zapewniają	-10603
▁przestrzeni	-10604
▁negotiations	-10605
▁okoliczności	-10606
▁podstawowego	-10607
▁podstawowych	-10608
OP	-10609
OS	-10610
▁6,	-10611
▁WH	-10612
ciła	-10613
jekt	-10614
kiet	-10615
ngen	-10616
ręcz	-10617
stal	-10618
szyb	-10619
▁Fer	-10620
▁Off	-10621
▁nud	-10622
ałoby	-10623
board	-10624
icide	-10625
never	-10626
orząd	-10627
łości	-10628
▁Cons	-10629
▁Greg	-10630
▁Hope	-10631
▁Okej	-10632
▁Pora	-10633
▁Soph	-10634
▁cars	-10635
▁kasy	-10636
▁keys	-10637
▁page	-10638
▁pist	-10639
▁znie	-10640
czyłeś	-10641
▁Bring	-10642
▁Itali	-10643
▁Jason	-10644
▁Karen	-10645
▁Ziemi	-10646
▁awful	-10647
▁drawn	-10648
▁obiad	-10649
▁ponie	-10650
▁staje	-10651
▁taste	-10652
▁zachę	-10653
illance	-10654
ycznego	-10655
▁Maggie	-10656
▁actual	-10657
▁dokony	-10658
▁indeed	-10659
▁pewnym	-10660
▁Człowie	-10661
▁conduct	-10662
▁niebies	-10663
▁ochronę	-10664
▁przekro	-10665
▁przetar	-10666
▁surface	-10667
▁vessels	-10668
▁village	-10669
▁weteryn	-10670
▁zabawne	-10671
▁Pierwszy	-10672
▁chemical	-10673
▁jedzenia	-10674
▁possibly	-10675
▁sprzedaw	-10676
▁zaakcept	-10677
▁contracts	-10678
▁procedurą	-10679
▁wymienione	-10680
▁zobowiązań	-10681
▁dodatkowych	-10682
▁operational	-10683
▁członkowskim	-10684
It	-10685
zę	-10686
awi	-10687
can	-10688
▁68	-10689
▁Dw	-10690
▁SP	-10691
▁tł	-10692
ette	-10693
rely	-10694
ript	-10695
roat	-10696
▁EEA	-10697
▁Fil	-10698
▁McC	-10699
▁Tem	-10700
▁ign	-10701
▁mel	-10702
▁wil	-10703
ables	-10704
ajemy	-10705
arian	-10706
kaliz	-10707
lison	-10708
niłem	-10709
▁Dziw	-10710
▁Kogo	-10711
▁Taka	-10712
▁dole	-10713
▁jeść	-10714
dziale	-10715
ifying	-10716
▁Chloe	-10717
▁Major	-10718
▁cells	-10719
▁grani	-10720
▁linii	-10721
▁serve	-10722
▁Lisbon	-10723
▁Sounds	-10724
▁fisher	-10725
▁piśmie	-10726
▁usłysz	-10727
▁dropped	-10728
▁facetem	-10729
▁negatyw	-10730
▁rozmowy	-10731
▁wielkim	-10732
▁Schengen	-10733
▁czterech	-10734
▁pictures	-10735
▁pochodzi	-10736
▁symptoms	-10737
▁Urzędowym	-10738
▁exporting	-10739
▁extremely	-10740
▁resulting	-10741
▁regulatory	-10742
▁wszystkimi	-10743
▁restruktury	-10744
▁Commissioner	-10745
▁International	-10746
▁doświadczenia	-10747
▁poszczególnych	-10748
▁przeznaczonych	-10749
22	-10750
zm	-10751
atę	-10752
lop	-10753
lęg	-10754
orę	-10755
osi	-10756
eral	-10757
pion	-10758
pret	-10759
rehe	-10760
▁Bul	-10761
▁Ira	-10762
▁Mum	-10763
▁tub	-10764
ATION	-10765
ięcia	-10766
rison	-10767
zdrow	-10768
▁Dean	-10769
▁Gold	-10770
▁Jean	-10771
▁Lady	-10772
▁Must	-10773
▁Pary	-10774
▁Trud	-10775
▁Walk	-10776
▁Wood	-10777
▁chat	-10778
▁crap	-10779
▁crow	-10780
▁dysp	-10781
▁fool	-10782
▁lied	-10783
▁lock	-10784
▁opóź	-10785
czyłam	-10786
nictwo	-10787
▁Honor	-10788
▁adequ	-10789
▁cieka	-10790
▁depos	-10791
▁draft	-10792
▁ended	-10793
▁ghost	-10794
▁nagro	-10795
▁presc	-10796
▁surow	-10797
▁szery	-10798
▁veter	-10799
▁wyrob	-10800
osition	-10801
▁Jordan	-10802
▁Master	-10803
▁czekaj	-10804
▁flying	-10805
▁injury	-10806
▁stress	-10807
▁walked	-10808
▁życiem	-10809
czyliśmy	-10810
rowadził	-10811
▁billion	-10812
▁dobrych	-10813
▁nauczyć	-10814
▁niewiel	-10815
▁pojazdu	-10816
▁uczucie	-10817
▁zadanie	-10818
▁zdrowot	-10819
▁category	-10820
▁exposure	-10821
▁murdered	-10822
▁odnośnie	-10823
▁poczekać	-10824
▁quantity	-10825
▁rodzinie	-10826
▁tygodnia	-10827
▁Dzienniku	-10828
▁committed	-10829
▁przekazać	-10830
▁zobaczymy	-10831
▁dokumentów	-10832
▁ktokolwiek	-10833
▁regulations	-10834
▁sustainable	-10835
▁communication	-10836
▁gospodarczego	-10837
bić	-10838
vig	-10839
łup	-10840
▁58	-10841
▁Fu	-10842
▁SU	-10843
load	-10844
trol	-10845
uchy	-10846
ywil	-10847
ówka	-10848
▁Poś	-10849
▁Tor	-10850
▁sle	-10851
▁włó	-10852
▁zem	-10853
cyjny	-10854
iadaj	-10855
wards	-10856
▁Skar	-10857
▁dude	-10858
▁leki	-10859
▁leży	-10860
▁piss	-10861
▁plot	-10862
▁rail	-10863
▁rise	-10864
▁skur	-10865
▁thus	-10866
▁woda	-10867
▁wpis	-10868
▁zdję	-10869
jskich	-10870
ujecie	-10871
▁Nasza	-10872
▁heavy	-10873
▁kandy	-10874
▁równo	-10875
▁sierp	-10876
▁twier	-10877
▁wycho	-10878
▁Świet	-10879
iculous	-10880
kaliśmy	-10881
▁Dzieci	-10882
▁Morgan	-10883
▁Radzie	-10884
▁biorąc	-10885
▁koordy	-10886
▁plants	-10887
▁regret	-10888
▁zdobyć	-10889
▁Jackson	-10890
▁okolicy	-10891
▁pierwot	-10892
▁powodów	-10893
▁prawidł	-10894
▁rodziną	-10895
▁traffic	-10896
▁zagrani	-10897
▁achieved	-10898
▁observed	-10899
▁physical	-10900
▁przedłuż	-10901
▁recovery	-10902
▁zachować	-10903
▁Uwielbiam	-10904
▁apologize	-10905
▁chciałabym	-10906
▁mieszkanie	-10907
▁respective	-10908
▁zezwolenia	-10909
St	-10910
eed	-10911
▁84	-10912
▁ec	-10913
▁ug	-10914
alem	-10915
jazd	-10916
mail	-10917
mist	-10918
rzel	-10919
wolu	-10920
▁178	-10921
▁jeź	-10922
▁pli	-10923
▁wią	-10924
▁ćwi	-10925
ancie	-10926
encję	-10927
▁1995	-10928
▁Find	-10929
▁Head	-10930
▁male	-10931
▁mian	-10932
▁miłe	-10933
▁nine	-10934
▁plat	-10935
▁poje	-10936
▁prow	-10937
▁spal	-10938
▁słab	-10939
▁trop	-10940
odniej	-10941
owości	-10942
▁Larry	-10943
▁Trust	-10944
▁While	-10945
▁Zabra	-10946
▁bunch	-10947
▁const	-10948
▁domin	-10949
▁jakaś	-10950
▁lines	-10951
▁south	-10952
▁umarł	-10953
▁Jakieś	-10954
▁Miałeś	-10955
▁Ojciec	-10956
▁Zgadza	-10957
▁asleep	-10958
▁dispos	-10959
▁magazy	-10960
▁profit	-10961
▁prohib	-10962
▁rozwij	-10963
▁umiera	-10964
▁wybrać	-10965
▁zgłosz	-10966
alizacji	-10967
▁Spróbuj	-10968
▁Zamierz	-10969
▁bastard	-10970
▁chodzić	-10971
▁mechani	-10972
▁mnóstwo	-10973
▁oparciu	-10974
▁survive	-10975
▁zdenerw	-10976
▁Musiałem	-10977
▁krajowym	-10978
▁otworzyć	-10979
▁speaking	-10980
▁expecting	-10981
▁expressed	-10982
▁spełniają	-10983
▁strategii	-10984
▁developing	-10985
▁obowiązków	-10986
▁wykorzystać	-10987
▁Porozumienia	-10988
aga	-10989
ażu	-10990
deł	-10991
oci	-10992
pon	-10993
sen	-10994
▁BE	-10995
▁tk	-10996
adem	-10997
erem	-10998
fici	-10999
liwa	-11000
scyt	-11001
skać	-11002
▁Bal	-11003
▁Dun	-11004
▁ciś	-11005
▁fli	-11006
▁węg	-11007
annel	-11008
czyło	-11009
ogram	-11010
under	-11011
▁1997	-11012
▁2014	-11013
▁Czym	-11014
▁Czyt	-11015
▁burn	-11016
▁cute	-11017
▁eduk	-11018
▁grab	-11019
▁holi	-11020
▁nogi	-11021
▁oboz	-11022
▁situ	-11023
▁swim	-11024
▁wide	-11025
▁wido	-11026
bienia	-11027
kologi	-11028
▁2005,	-11029
▁2007.	-11030
▁Dowie	-11031
▁Happy	-11032
▁Miała	-11033
▁Stary	-11034
▁Vegas	-11035
▁dirty	-11036
▁motor	-11037
▁oboje	-11038
▁shame	-11039
▁split	-11040
▁uwiel	-11041
▁leaves	-11042
▁lekarz	-11043
▁martwy	-11044
▁odległ	-11045
▁pienię	-11046
▁reduce	-11047
▁rozsąd	-11048
▁scream	-11049
▁używać	-11050
▁zabije	-11051
▁Further	-11052
▁Próbuję	-11053
▁illegal	-11054
▁kochasz	-11055
▁nuclear	-11056
▁patrzeć	-11057
▁pozytyw	-11058
▁remains	-11059
▁skierow	-11060
▁returned	-11061
▁temperat	-11062
▁wskazuje	-11063
▁Niniejsza	-11064
▁considers	-11065
▁przypomin	-11066
▁refundacji	-11067
▁throughout	-11068
▁zagrożenia	-11069
▁prowadzenia	-11070
▁przeszłości	-11071
▁zwiększenia	-11072
▁distribution	-11073
▁ograniczenia	-11074
▁monitorowania	-11075
RL	-11076
phe	-11077
▁44	-11078
arki	-11079
dzać	-11080
liar	-11081
mile	-11082
szył	-11083
▁123	-11084
▁Arm	-11085
▁ety	-11086
▁kal	-11087
▁nur	-11088
▁pią	-11089
▁płu	-11090
▁zep	-11091
amtąd	-11092
▁Sand	-11093
▁czuć	-11094
▁ends	-11095
▁init	-11096
▁morz	-11097
▁nowo	-11098
▁ours	-11099
▁parl	-11100
▁żyją	-11101
ariusz	-11102
prises	-11103
▁Absol	-11104
▁Dobre	-11105
▁Sweet	-11106
▁Uncle	-11107
▁album	-11108
▁color	-11109
▁cywil	-11110
▁fruit	-11111
▁incor	-11112
▁poleg	-11113
▁print	-11114
▁profi	-11115
▁włosy	-11116
▁zmusz	-11117
▁Common	-11118
▁easily	-11119
▁extent	-11120
▁rzeczą	-11121
▁spread	-11122
▁swobod	-11123
▁własny	-11124
▁zamord	-11125
▁zgadza	-11126
▁Obawiam	-11127
▁biggest	-11128
▁growing	-11129
▁insulin	-11130
▁kapitał	-11131
▁kilomet	-11132
▁kitchen	-11133
▁najszyb	-11134
▁obsługi	-11135
▁parking	-11136
▁podróży	-11137
▁proport	-11138
▁stories	-11139
▁dostępne	-11140
▁released	-11141
▁requires	-11142
▁szczeblu	-11143
▁Zobaczymy	-11144
▁committee	-11145
▁dyrektywa	-11146
▁operating	-11147
▁projektów	-11148
▁recognize	-11149
▁strasznie	-11150
▁publicznej	-11151
▁umożliwiają	-11152
▁zarejestrow	-11153
▁zdecydowanie	-11154
▁sprawiedliwości	-11155
ąb	-11156
wań	-11157
ades	-11158
aker	-11159
iera	-11160
orek	-11161
łych	-11162
▁400	-11163
▁Him	-11164
▁Pok	-11165
▁Rod	-11166
▁Six	-11167
▁jąd	-11168
▁moi	-11169
erves	-11170
gland	-11171
mioty	-11172
riest	-11173
ściej	-11174
▁Brad	-11175
▁None	-11176
▁Pret	-11177
▁Sing	-11178
▁dala	-11179
▁task	-11180
▁woli	-11181
▁zawi	-11182
▁zjaw	-11183
▁Jones	-11184
▁Young	-11185
▁akcji	-11186
▁blind	-11187
▁daddy	-11188
▁hello	-11189
▁leków	-11190
▁pokon	-11191
▁uderz	-11192
▁usual	-11193
▁wdroż	-11194
▁zjeść	-11195
▁Howard	-11196
▁Nathan	-11197
▁agents	-11198
▁aktual	-11199
▁bottle	-11200
▁eksper	-11201
▁eksplo	-11202
▁hereby	-11203
▁pieprz	-11204
▁pięciu	-11205
▁severe	-11206
▁zmiana	-11207
spective	-11208
▁Francji	-11209
▁Odpowie	-11210
▁capable	-11211
▁delikat	-11212
▁określa	-11213
▁przywoz	-11214
▁regions	-11215
▁sprawia	-11216
▁stopniu	-11217
▁słuchać	-11218
▁Rozmawia	-11219
▁chodziło	-11220
▁exercise	-11221
▁majority	-11222
▁priority	-11223
▁Commander	-11224
▁customers	-11225
▁destroyed	-11226
▁directive	-11227
▁przeglądu	-11228
▁everywhere	-11229
▁określonym	-11230
▁skomplikow	-11231
▁stosownych	-11232
▁successful	-11233
▁potrzebował	-11234
▁publicznego	-11235
▁zapewnienie	-11236
▁construction	-11237
▁europejskich	-11238
▁approximately	-11239
ips	-11240
oon	-11241
pić	-11242
rii	-11243
▁Fa	-11244
▁IC	-11245
▁Ky	-11246
▁zj	-11247
anny	-11248
born	-11249
gent	-11250
obby	-11251
olen	-11252
omer	-11253
usiu	-11254
▁Boy	-11255
▁CIA	-11256
▁Lew	-11257
▁Rum	-11258
▁Zmi	-11259
▁cof	-11260
▁kul	-11261
▁psa	-11262
▁ros	-11263
▁row	-11264
▁sze	-11265
▁tim	-11266
arzeń	-11267
cjach	-11268
enger	-11269
iadam	-11270
▁Sean	-11271
▁cart	-11272
▁cere	-11273
▁laug	-11274
▁neut	-11275
▁pure	-11276
▁roof	-11277
▁sześ	-11278
iliśmy	-11279
termin	-11280
ycznie	-11281
▁Betty	-11282
▁Julia	-11283
▁Nowym	-11284
▁Robin	-11285
▁Their	-11286
▁Załat	-11287
▁brief	-11288
▁niezw	-11289
▁odkąd	-11290
▁ought	-11291
▁pokoj	-11292
arzenie	-11293
▁Istnie	-11294
▁Najlep	-11295
▁bierze	-11296
▁bottom	-11297
▁incred	-11298
▁pozbyć	-11299
▁resztę	-11300
▁rezult	-11301
▁spożyw	-11302
▁starts	-11303
▁stated	-11304
▁wypraw	-11305
▁zmierz	-11306
▁Panowie	-11307
▁Uspokój	-11308
▁century	-11309
▁hanging	-11310
▁uczucia	-11311
bołówstwa	-11312
▁Although	-11313
▁bleeding	-11314
▁comments	-11315
▁obtained	-11316
▁ostatnia	-11317
▁załatwić	-11318
▁czynności	-11319
▁jednostki	-11320
▁operators	-11321
▁państwami	-11322
▁dotyczącej	-11323
▁odpowiedni	-11324
▁paragraphs	-11325
▁przypadków	-11326
▁sprawozdaw	-11327
▁understood	-11328
▁implemented	-11329
▁przedstawić	-11330
▁następujących	-11331
We	-11332
arp	-11333
bol	-11334
cki	-11335
▁47	-11336
▁7.	-11337
acer	-11338
ardy	-11339
grze	-11340
liwi	-11341
okie	-11342
onii	-11343
▁Bus	-11344
▁Leg	-11345
▁Nas	-11346
▁cup	-11347
craft	-11348
dztwa	-11349
godne	-11350
round	-11351
▁Cass	-11352
▁Frid	-11353
▁Long	-11354
▁drze	-11355
▁leci	-11356
▁mail	-11357
▁pods	-11358
orient	-11359
▁Mówią	-11360
▁Table	-11361
▁karty	-11362
▁opłat	-11363
▁podło	-11364
▁posił	-11365
▁rządu	-11366
▁ships	-11367
▁szkod	-11368
▁umysł	-11369
▁uzgod	-11370
▁Chwila	-11371
▁Follow	-11372
▁Między	-11373
▁Podoba	-11374
▁Police	-11375
▁Przysz	-11376
▁dostał	-11377
▁dystry	-11378
▁humans	-11379
▁identy	-11380
▁jedyna	-11381
▁jedyną	-11382
▁kolego	-11383
▁liście	-11384
▁Mówiłam	-11385
▁decyzją	-11386
▁knowing	-11387
▁leaders	-11388
▁selling	-11389
▁wytłuma	-11390
▁leczenie	-11391
▁przyjęte	-11392
▁wreszcie	-11393
▁confident	-11394
▁powietrza	-11395
▁zniszczyć	-11396
▁rozwiązania	-11397
▁Członkowskiego	-11398
LA	-11399
aks	-11400
ffs	-11401
ksy	-11402
kur	-11403
lok	-11404
umb	-11405
yst	-11406
łym	-11407
▁57	-11408
▁66	-11409
▁94	-11410
agan	-11411
iter	-11412
mary	-11413
nicę	-11414
otic	-11415
play	-11416
ryty	-11417
wała	-11418
▁Bat	-11419
▁abo	-11420
▁bil	-11421
▁dim	-11422
▁rot	-11423
▁rub	-11424
esome	-11425
ients	-11426
▁Home	-11427
▁Hung	-11428
▁Lois	-11429
▁Obec	-11430
▁kamp	-11431
▁trój	-11432
▁użyć	-11433
stości	-11434
▁Kilka	-11435
▁Molly	-11436
▁Queen	-11437
▁Trans	-11438
▁Wiemy	-11439
▁adapt	-11440
▁beach	-11441
▁enfor	-11442
▁głupi	-11443
▁narze	-11444
▁oznak	-11445
▁refer	-11446
▁rozst	-11447
▁uszcz	-11448
▁wybor	-11449
▁założ	-11450
czonego	-11451
hington	-11452
styczne	-11453
▁Arthur	-11454
▁Szkoda	-11455
▁medium	-11456
▁miałby	-11457
▁opieki	-11458
▁sample	-11459
▁samych	-11460
▁uznaje	-11461
▁wybran	-11462
▁źródła	-11463
▁Ireland	-11464
▁Popatrz	-11465
▁manager	-11466
▁mógłbyś	-11467
▁obvious	-11468
▁science	-11469
▁benefici	-11470
▁chłopaka	-11471
▁drugiego	-11472
▁kontrolę	-11473
▁przegląd	-11474
▁restrict	-11475
▁substant	-11476
▁zapłacić	-11477
▁connected	-11478
▁perfectly	-11479
▁perspekty	-11480
▁posłuchaj	-11481
▁uprawnień	-11482
▁zmienione	-11483
▁zrównoważ	-11484
▁Government	-11485
▁potrzebują	-11486
▁registered	-11487
▁konsultacji	-11488
▁zwiększenie	-11489
▁gospodarczej	-11490
▁pochodzących	-11491
▁umiejętności	-11492
▁bezpieczeństwo	-11493
Th	-11494
To	-11495
cue	-11496
fit	-11497
oda	-11498
zdy	-11499
▁Az	-11500
▁IP	-11501
ciwe	-11502
emia	-11503
gers	-11504
hand	-11505
that	-11506
▁Aid	-11507
▁Sol	-11508
▁ded	-11509
▁doz	-11510
▁htt	-11511
▁nut	-11512
▁sku	-11513
▁unt	-11514
haust	-11515
ranie	-11516
łyśmy	-11517
▁Mont	-11518
▁Quin	-11519
▁brać	-11520
▁dogs	-11521
▁hole	-11522
▁kump	-11523
▁zain	-11524
▁śnie	-11525
illing	-11526
▁dobro	-11527
▁finds	-11528
▁keeps	-11529
▁photo	-11530
▁synem	-11531
▁wolne	-11532
▁wolny	-11533
▁wyraz	-11534
▁wysył	-11535
▁wyżej	-11536
▁zwrot	-11537
▁Proble	-11538
▁Wierzę	-11539
▁afford	-11540
▁bratem	-11541
▁confli	-11542
▁jakbyś	-11543
▁języku	-11544
▁leader	-11545
▁object	-11546
▁permit	-11547
▁pomaga	-11548
▁pulled	-11549
▁series	-11550
▁struct	-11551
▁zajęty	-11552
▁zestaw	-11553
▁zgłasz	-11554
▁Finally	-11555
▁Italian	-11556
▁dealing	-11557
▁ekonomi	-11558
▁różnica	-11559
stycznych	-11560
▁Economic	-11561
▁Szczerze	-11562
▁beneficj	-11563
▁checking	-11564
▁funduszy	-11565
▁judgment	-11566
▁kontrolą	-11567
▁mountain	-11568
▁presence	-11569
▁violence	-11570
▁własnego	-11571
▁zastrzeż	-11572
▁confirmed	-11573
▁czynienia	-11574
▁potrzebne	-11575
▁providing	-11576
▁temporary	-11577
▁zagwarant	-11578
▁porozmawia	-11579
▁szczęśliwa	-11580
▁transakcji	-11581
▁niebezpieczne	-11582
▁restructuring	-11583
-5	-11584
IR	-11585
SI	-11586
.11	-11587
ras	-11588
ula	-11589
▁64	-11590
▁AL	-11591
▁Ak	-11592
▁Zm	-11593
comm	-11594
illa	-11595
nami	-11596
nimy	-11597
pite	-11598
▁Ask	-11599
▁Eve	-11600
▁Lab	-11601
▁cas	-11602
▁cyk	-11603
▁liz	-11604
rzymy	-11605
rzysz	-11606
ródeł	-11607
ującą	-11608
▁Dużo	-11609
▁Ross	-11610
▁Same	-11611
▁Zroz	-11612
▁alfa	-11613
▁chiń	-11614
▁http	-11615
▁lamp	-11616
▁lord	-11617
▁mecz	-11618
▁nagr	-11619
▁tree	-11620
▁uses	-11621
▁winy	-11622
▁zaop	-11623
▁zazd	-11624
ńskiej	-11625
▁Annie	-11626
▁Współ	-11627
▁butel	-11628
▁chain	-11629
▁daily	-11630
▁facts	-11631
▁okłam	-11632
▁popie	-11633
▁suger	-11634
▁słusz	-11635
▁virus	-11636
▁wziął	-11637
▁zadać	-11638
acyjnej	-11639
ligence	-11640
▁bright	-11641
▁brings	-11642
▁compat	-11643
▁jakimś	-11644
▁kryzys	-11645
▁obciąż	-11646
▁papier	-11647
▁pułkow	-11648
▁słyszę	-11649
▁tonnes	-11650
▁England	-11651
▁Przysię	-11652
▁analizy	-11653
▁artykuł	-11654
▁chcieli	-11655
▁cholera	-11656
▁confirm	-11657
▁factors	-11658
▁nadzoru	-11659
▁słuchaj	-11660
▁Director	-11661
▁Mieliśmy	-11662
▁Pamiętam	-11663
▁affected	-11664
▁amending	-11665
▁dziennik	-11666
▁ostatnim	-11667
▁próbował	-11668
▁direction	-11669
▁przekonać	-11670
▁charaktery	-11671
▁collection	-11672
▁wystąpienia	-11673
amb	-11674
cut	-11675
isa	-11676
put	-11677
rog	-11678
▁53	-11679
▁Ol	-11680
▁Rę	-11681
What	-11682
grow	-11683
lant	-11684
rage	-11685
rett	-11686
▁Mek	-11687
▁Pub	-11688
▁haz	-11689
▁hem	-11690
▁zle	-11691
chodź	-11692
szeni	-11693
ądzeń	-11694
łagam	-11695
łudni	-11696
▁Barb	-11697
▁Posz	-11698
▁Slov	-11699
▁cake	-11700
▁gnie	-11701
▁jack	-11702
▁rany	-11703
czoraj	-11704
ieniem	-11705
omiast	-11706
rences	-11707
▁Dział	-11708
▁Jedna	-11709
▁Jenny	-11710
▁Jesse	-11711
▁adwok	-11712
▁dotyk	-11713
▁długi	-11714
▁głębo	-11715
▁ideas	-11716
▁każda	-11717
▁każde	-11718
▁kidna	-11719
▁mając	-11720
▁odbie	-11721
▁wydaj	-11722
▁Except	-11723
▁Gabrie	-11724
▁bracie	-11725
▁brzmie	-11726
▁resist	-11727
▁ziemię	-11728
▁zmianę	-11729
▁źródeł	-11730
dziliśmy	-11731
▁Możecie	-11732
▁agencji	-11733
▁niemiec	-11734
▁oddziel	-11735
▁quarter	-11736
▁siostry	-11737
▁stamtąd	-11738
▁uważasz	-11739
▁wstrzyk	-11740
▁detektyw	-11741
▁entitled	-11742
▁jednolit	-11743
▁państwie	-11744
▁zmniejsz	-11745
▁pokładzie	-11746
▁przypadek	-11747
▁wyobrazić	-11748
▁conference	-11749
▁obligation	-11750
▁regulation	-11751
▁ridiculous	-11752
▁wnioskodaw	-11753
▁examination	-11754
MP	-11755
UR	-11756
ęła	-11757
alog	-11758
book	-11759
cach	-11760
erzy	-11761
hest	-11762
kołu	-11763
onem	-11764
razy	-11765
shit	-11766
ukać	-11767
znaj	-11768
▁Bla	-11769
▁bru	-11770
▁hat	-11771
▁sąs	-11772
▁wóz	-11773
▁żył	-11774
alous	-11775
encje	-11776
hetic	-11777
iązyw	-11778
▁Stud	-11779
▁Were	-11780
▁kwot	-11781
▁lots	-11782
▁mamą	-11783
▁mózg	-11784
▁onto	-11785
▁pose	-11786
▁stro	-11787
▁słow	-11788
finans	-11789
▁2004.	-11790
▁Laure	-11791
▁Pomóż	-11792
▁Przes	-11793
▁Start	-11794
▁attra	-11795
▁cześć	-11796
▁córki	-11797
▁evalu	-11798
▁mleka	-11799
▁notes	-11800
▁pomie	-11801
▁river	-11802
▁roztw	-11803
▁smoke	-11804
▁uchyl	-11805
▁veget	-11806
▁voted	-11807
▁Śmier	-11808
▁Berlin	-11809
▁Friday	-11810
▁Sprzed	-11811
▁defend	-11812
▁jakbym	-11813
▁lately	-11814
▁lotnis	-11815
▁oblicz	-11816
▁oprócz	-11817
▁porucz	-11818
▁punish	-11819
▁rezerw	-11820
▁ruszaj	-11821
▁season	-11822
▁speech	-11823
▁swoimi	-11824
▁służby	-11825
▁Zadzwoń	-11826
▁czasach	-11827
▁dollars	-11828
▁dziwnie	-11829
▁efektyw	-11830
▁ekspert	-11831
▁holiday	-11832
▁książkę	-11833
▁najbliż	-11834
▁organów	-11835
▁punkcie	-11836
▁rozmowę	-11837
▁showing	-11838
▁testing	-11839
▁although	-11840
▁includes	-11841
▁katastro	-11842
▁mających	-11843
▁osiągnię	-11844
▁pamiętać	-11845
▁sprowadz	-11846
▁Christian	-11847
▁Widziałam	-11848
▁breathing	-11849
▁interpret	-11850
▁następnym	-11851
▁wydarzyło	-11852
▁doprowadzi	-11853
▁pozwolenia	-11854
▁przypuszcz	-11855
▁restaurant	-11856
▁Communities	-11857
▁accordingly	-11858
▁complicated	-11859
▁samochodzie	-11860
▁sprawozdaniu	-11861
ws	-11862
ila	-11863
ódź	-11864
▁56	-11865
arty	-11866
asha	-11867
hern	-11868
iero	-11869
ilis	-11870
inem	-11871
niam	-11872
onek	-11873
oryz	-11874
rend	-11875
rzeń	-11876
wszy	-11877
▁192	-11878
▁Ach	-11879
▁Dot	-11880
▁Set	-11881
▁Vol	-11882
▁hod	-11883
▁ing	-11884
▁rab	-11885
▁rys	-11886
parat	-11887
puści	-11888
▁Aren	-11889
▁Food	-11890
▁Hist	-11891
▁Inne	-11892
▁Scot	-11893
▁Umie	-11894
▁błęd	-11895
▁cenę	-11896
▁daty	-11897
▁east	-11898
▁fuel	-11899
▁moon	-11900
▁mort	-11901
▁plus	-11902
▁pośl	-11903
▁rein	-11904
▁spis	-11905
▁tune	-11906
▁vacc	-11907
leczkę	-11908
liwych	-11909
rifice	-11910
unkiem	-11911
▁Guess	-11912
▁Party	-11913
▁Shall	-11914
▁campa	-11915
▁komuś	-11916
▁misji	-11917
▁podję	-11918
▁zwrac	-11919
▁żadne	-11920
▁Little	-11921
▁Wysoki	-11922
▁Znaleź	-11923
▁bridge	-11924
▁denerw	-11925
▁równow	-11926
▁szkody	-11927
▁taught	-11928
▁wysoki	-11929
nościach	-11930
▁Officer	-11931
▁Special	-11932
▁answers	-11933
▁compens	-11934
▁exhaust	-11935
▁healthy	-11936
▁letting	-11937
▁młodzie	-11938
▁pattern	-11939
▁terenie	-11940
▁ustalić	-11941
▁uzyskać	-11942
▁importer	-11943
▁indicate	-11944
▁learning	-11945
▁shooting	-11946
▁urodziny	-11947
▁urządzeń	-11948
▁zasadami	-11949
▁Zadzwonię	-11950
▁challenge	-11951
▁disappear	-11952
▁osobiście	-11953
▁problemem	-11954
▁electronic	-11955
▁invitation	-11956
▁moglibyśmy	-11957
▁morderstwo	-11958
▁przyjacielu	-11959
▁Przewodniczący	-11960
▁odpowiedzialny	-11961
▁characteristics	-11962
CZ	-11963
IG	-11964
hmm	-11965
pes	-11966
▁DE	-11967
▁Wo	-11968
biór	-11969
lega	-11970
rees	-11971
vine	-11972
what	-11973
łuży	-11974
▁Dex	-11975
▁Gil	-11976
▁Kor	-11977
▁Mid	-11978
▁Old	-11979
▁Tri	-11980
▁bał	-11981
▁fac	-11982
▁raw	-11983
▁ubo	-11984
▁zer	-11985
cyjna	-11986
rymin	-11987
utive	-11988
▁Król	-11989
▁Life	-11990
▁Swed	-11991
▁Słow	-11992
▁grub	-11993
▁inna	-11994
▁kawy	-11995
▁lone	-11996
▁niby	-11997
▁teor	-11998
▁zero	-11999
rześci	-12000
wienia	-12001
▁Found	-12002
▁Jakby	-12003
▁Każda	-12004
▁Organ	-12005
▁Uwaga	-12006
▁dumny	-12007
▁liver	-12008
▁otwie	-12009
▁relie	-12010
▁rough	-12011
▁stylu	-12012
▁toast	-12013
▁toxic	-12014
▁units	-12015
▁wynos	-12016
amencie	-12017
livered	-12018
▁Always	-12019
▁Niemcy	-12020
▁Victor	-12021
▁Więcej	-12022
▁ciekaw	-12023
▁dating	-12024
▁formul	-12025
▁manner	-12026
▁minuty	-12027
▁nation	-12028
▁szanse	-12029
▁szefie	-12030
▁tamtej	-12031
▁Byliśmy	-12032
▁Słucham	-12033
▁Wczoraj	-12034
▁breathe	-12035
▁coordin	-12036
▁gwarant	-12037
▁mogłoby	-12038
▁placebo	-12039
▁turning	-12040
▁wyjeżdż	-12041
▁wyobraż	-12042
▁wysłuch	-12043
▁zniszcz	-12044
▁koordyna	-12045
▁legislat	-12046
▁meetings	-12047
▁painting	-12048
▁stronger	-12049
▁Catherine	-12050
▁contained	-12051
▁detective	-12052
▁extension	-12053
▁krajowego	-12054
▁reasonable	-12055
▁konsumentów	-12056
▁niesamowite	-12057
▁provisional	-12058
▁wykonywania	-12059
▁intervention	-12060
▁understanding	-12061
▁wykorzystania	-12062
-4	-12063
cep	-12064
gnę	-12065
zed	-12066
▁Aż	-12067
fter	-12068
ioną	-12069
itro	-12070
ięta	-12071
▁Będ	-12072
▁EOG	-12073
▁Inc	-12074
▁Lem	-12075
▁Men	-12076
▁Pil	-12077
▁Rów	-12078
▁Sta	-12079
▁Str	-12080
▁Tan	-12081
▁żół	-12082
nikom	-12083
▁Care	-12084
▁Hard	-12085
▁cena	-12086
▁clar	-12087
▁coin	-12088
▁dach	-12089
▁eggs	-12090
▁gate	-12091
▁pies	-12092
isters	-12093
niczej	-12094
wajcar	-12095
wanych	-12096
ywania	-12097
▁Panno	-12098
▁Zapew	-12099
▁began	-12100
▁liczy	-12101
▁minor	-12102
▁shoes	-12103
▁wyści	-12104
▁zalec	-12105
▁Żaden	-12106
ościach	-12107
▁Africa	-12108
▁forced	-12109
▁highly	-12110
▁liquid	-12111
▁option	-12112
▁stolen	-12113
▁wywozu	-12114
▁zakłóc	-12115
▁zechce	-12116
▁Alright	-12117
▁Section	-12118
▁abandon	-12119
▁aspects	-12120
▁klienta	-12121
▁krajowe	-12122
▁niewłaś	-12123
▁otworzy	-12124
▁południ	-12125
▁sweetie	-12126
▁wyjście	-12127
▁własnym	-12128
▁dostanie	-12129
▁greatest	-12130
▁kryteria	-12131
▁przyszła	-12132
▁spojrzeć	-12133
▁suddenly	-12134
▁zanieczy	-12135
▁delivered	-12136
▁interesów	-12137
▁obowiązek	-12138
▁szczęścia	-12139
▁zazwyczaj	-12140
▁Nienawidzę	-12141
▁Porozmawia	-12142
▁identified	-12143
▁inspection	-12144
▁szczególne	-12145
▁dotyczącego	-12146
▁enterprises	-12147
▁homologacji	-12148
▁consequences	-12149
▁surveillance	-12150
▁Congratulations	-12151
bor	-12152
lot	-12153
rus	-12154
ędz	-12155
▁ww	-12156
abym	-12157
alle	-12158
rael	-12159
▁107	-12160
▁Dow	-12161
▁Les	-12162
▁Zde	-12163
▁arr	-12164
▁fal	-12165
▁grę	-12166
czycy	-12167
stytu	-12168
▁Dude	-12169
▁Kent	-12170
▁Lily	-12171
▁Mond	-12172
▁Sund	-12173
▁iron	-12174
▁proś	-12175
▁smak	-12176
▁west	-12177
▁zbad	-12178
▁ziel	-12179
ishing	-12180
jechał	-12181
ligent	-12182
rzenie	-12183
▁2004,	-12184
▁Haven	-12185
▁Helen	-12186
▁Meksy	-12187
▁Mommy	-12188
▁Zabie	-12189
▁cards	-12190
▁diagn	-12191
▁forth	-12192
▁fortu	-12193
▁heads	-12194
▁hurts	-12195
▁mirac	-12196
▁oddać	-12197
▁panno	-12198
▁prześ	-12199
▁służb	-12200
▁Gratul	-12201
▁Harvey	-12202
▁labour	-12203
▁ocenia	-12204
▁strona	-12205
▁sądzie	-12206
▁znajdę	-12207
▁Decyzja	-12208
▁William	-12209
▁absolut	-12210
▁aktywów	-12211
▁collect	-12212
▁odebrać	-12213
▁otwarte	-12214
▁pracuję	-12215
▁wiadomo	-12216
▁wspólne	-12217
▁Sergeant	-12218
▁arrested	-12219
▁jedziemy	-12220
▁kłopotów	-12221
▁niedługo	-12222
▁sierpnia	-12223
▁śmieszne	-12224
▁Znalazłem	-12225
▁consumers	-12226
▁oczywiste	-12227
▁prawdziwa	-12228
▁procedura	-12229
▁reactions	-12230
▁telewizji	-12231
▁efficiency	-12232
▁wprowadzić	-12233
▁opportunities	-12234
▁wspólnotowych	-12235
',	-12236
AG	-12237
TS	-12238
YP	-12239
eal	-12240
jan	-12241
▁sn	-12242
ived	-12243
▁Add	-12244
▁Hit	-12245
▁Ich	-12246
▁Kit	-12247
▁Sea	-12248
▁Vic	-12249
▁cyt	-12250
▁pud	-12251
▁tuż	-12252
▁tłu	-12253
atywy	-12254
cznik	-12255
norod	-12256
trzym	-12257
▁1990	-12258
▁Beth	-12259
▁Both	-12260
▁Camp	-12261
▁Dość	-12262
▁Gary	-12263
▁Gosp	-12264
▁Głów	-12265
▁Prom	-12266
▁Tata	-12267
▁acts	-12268
▁biur	-12269
▁hous	-12270
▁lies	-12271
▁odwa	-12272
▁pogo	-12273
▁serw	-12274
▁tape	-12275
▁włam	-12276
iously	-12277
otrzeb	-12278
ówczas	-12279
▁2008.	-12280
▁Charl	-12281
▁Urząd	-12282
▁kanap	-12283
▁nomin	-12284
▁rapid	-12285
▁sumie	-12286
▁tworz	-12287
▁zapas	-12288
▁Życie	-12289
.12.200	-12290
nictwem	-12291
▁Andrew	-12292
▁Chryst	-12293
▁Marcus	-12294
▁Report	-12295
▁corner	-12296
▁deklar	-12297
▁faster	-12298
▁fałszy	-12299
▁objawy	-12300
▁przetr	-12301
▁przewi	-12302
▁skills	-12303
▁stacji	-12304
▁theory	-12305
▁wszech	-12306
▁Brother	-12307
▁advance	-12308
▁decyzje	-12309
▁flowers	-12310
▁leading	-12311
▁potwier	-12312
▁połowów	-12313
▁promote	-12314
▁servant	-12315
▁suicide	-12316
▁weather	-12317
▁website	-12318
▁Zrobiłem	-12319
▁campaign	-12320
▁ensuring	-12321
▁musiałem	-12322
▁psychiat	-12323
▁schedule	-12324
▁software	-12325
▁influence	-12326
▁kapitanie	-12327
▁niezwykle	-12328
▁przekracz	-12329
▁receiving	-12330
▁Washington	-12331
▁bezpieczna	-12332
▁codziennie	-12333
▁contribute	-12334
▁guidelines	-12335
▁instytucje	-12336
▁originating	-12337
▁proceedings	-12338
▁rozwiązanie	-12339
:1	-12340
dl	-12341
TER	-12342
naw	-12343
oza	-12344
zer	-12345
▁7,	-12346
▁76	-12347
▁8,	-12348
▁8.	-12349
▁Kw	-12350
▁eh	-12351
aper	-12352
arda	-12353
cone	-12354
kins	-12355
ques	-12356
rich	-12357
wają	-12358
▁414	-12359
▁Bas	-12360
▁Huh	-12361
▁Kam	-12362
▁Kie	-12363
▁Pau	-12364
▁Sum	-12365
▁VAT	-12366
▁jut	-12367
▁via	-12368
belie	-12369
niane	-12370
rygin	-12371
wietl	-12372
▁Holy	-12373
▁Many	-12374
▁dobę	-12375
▁legs	-12376
▁okno	-12377
▁rana	-12378
▁taty	-12379
▁wzro	-12380
▁Cieka	-12381
▁Czech	-12382
▁India	-12383
▁Miami	-12384
▁Miejs	-12385
▁Norwe	-12386
▁cream	-12387
▁jazdy	-12388
▁krwaw	-12389
▁pełne	-12390
▁pomys	-12391
▁relig	-12392
illiant	-12393
owanymi	-12394
waliśmy	-12395
wentual	-12396
▁Forget	-12397
▁bronią	-12398
▁candid	-12399
▁entity	-12400
▁explan	-12401
▁invent	-12402
▁nakład	-12403
▁niedaw	-12404
▁rynków	-12405
▁siedem	-12406
▁składa	-12407
▁uzależ	-12408
▁wszczę	-12409
▁zastąp	-12410
▁impress	-12411
▁licence	-12412
▁pension	-12413
▁przywód	-12414
▁punktów	-12415
▁streets	-12416
▁stworzy	-12417
▁większą	-12418
▁zajęcia	-12419
▁zostali	-12420
▁Nieważne	-12421
▁applying	-12422
▁eligible	-12423
▁powoduje	-12424
▁uszczerb	-12425
▁wskazują	-12426
▁zapomnij	-12427
▁Wspólnotę	-12428
▁excellent	-12429
▁wielkiego	-12430
identyfikow	-12431
▁materiałów	-12432
▁właściwych	-12433
▁differences	-12434
▁przedmiotem	-12435
osa	-12436
▁74	-12437
▁Ek	-12438
▁ka	-12439
char	-12440
ciel	-12441
goda	-12442
iles	-12443
itis	-12444
nęło	-12445
ocie	-12446
ours	-12447
remy	-12448
▁Gal	-12449
▁Tot	-12450
▁jur	-12451
biorę	-12452
cyjną	-12453
iment	-12454
ratic	-12455
urday	-12456
▁Ever	-12457
▁Jedź	-12458
▁Sant	-12459
▁auto	-12460
▁bone	-12461
▁bólu	-12462
▁darm	-12463
▁głoś	-12464
▁sali	-12465
▁skoj	-12466
▁snow	-12467
▁sole	-12468
▁wyle	-12469
▁Żart	-12470
dziłeś	-12471
▁2007,	-12472
▁Vince	-12473
▁dwoje	-12474
▁folks	-12475
▁grupa	-12476
▁inhib	-12477
▁jasno	-12478
▁niewi	-12479
▁obron	-12480
▁odczu	-12481
▁stała	-12482
▁storm	-12483
rations	-12484
related	-12485
▁Ciężko	-12486
▁Dopóki	-12487
▁Nikogo	-12488
▁Trudno	-12489
▁Wilson	-12490
▁biurze	-12491
▁convin	-12492
▁enable	-12493
▁mental	-12494
▁poszła	-12495
▁randkę	-12496
▁wielka	-12497
▁Majesty	-12498
▁grounds	-12499
▁mówiłam	-12500
▁podatku	-12501
▁warrant	-12502
▁łatwiej	-12503
▁Niektóre	-12504
▁consumer	-12505
▁kapitału	-12506
▁wymagane	-12507
▁śmiercią	-12508
▁śmiertel	-12509
▁Przedstaw	-12510
▁accession	-12511
▁efficient	-12512
▁forgotten	-12513
▁medicines	-12514
▁reporting	-12515
▁sacrifice	-12516
▁thousands	-12517
▁zakończyć	-12518
▁śniadanie	-12519
▁Management	-12520
▁conclusion	-12521
▁consistent	-12522
▁integrated	-12523
▁personally	-12524
▁prawdziwym	-12525
▁producenta	-12526
▁protecting	-12527
▁stanowiska	-12528
▁uszczerbku	-12529
▁zachowanie	-12530
▁zamierzasz	-12531
▁antydumping	-12532
▁electricity	-12533
▁powierzchni	-12534
▁znaleźliśmy	-12535
▁Unfortunately	-12536
PS	-12537
tą	-12538
▁Ź	-12539
bal	-12540
ele	-12541
hyd	-12542
ico	-12543
pul	-12544
umn	-12545
óły	-12546
aków	-12547
anek	-12548
broj	-12549
dząc	-12550
miar	-12551
nili	-12552
rary	-12553
rier	-12554
łach	-12555
łego	-12556
▁Cze	-12557
▁Faj	-12558
▁Gri	-12559
▁Kos	-12560
▁Log	-12561
▁Lud	-12562
▁Rus	-12563
▁Wat	-12564
▁Wst	-12565
▁den	-12566
▁swa	-12567
▁tas	-12568
antly	-12569
arcia	-12570
czerp	-12571
czyli	-12572
dzone	-12573
feron	-12574
going	-12575
ionej	-12576
niczy	-12577
reece	-12578
yczna	-12579
▁Also	-12580
▁Chcą	-12581
▁Emma	-12582
▁Radę	-12583
▁Ziem	-12584
▁dłon	-12585
▁grat	-12586
▁klat	-12587
▁modu	-12588
▁rozg	-12589
▁szaf	-12590
ateful	-12591
czniej	-12592
uratom	-12593
visory	-12594
▁Belgi	-12595
▁Donna	-12596
▁Jezus	-12597
▁banku	-12598
▁kryty	-12599
▁mężem	-12600
▁niena	-12601
▁stake	-12602
▁trafi	-12603
▁ukrad	-12604
ciliśmy	-12605
czynamy	-12606
▁During	-12607
▁Enough	-12608
▁Greece	-12609
▁Health	-12610
▁Raczej	-12611
▁bloody	-12612
▁explos	-12613
▁gotowe	-12614
▁lesson	-12615
▁manage	-12616
▁podwój	-12617
▁rezolu	-12618
▁waszej	-12619
▁wściek	-12620
▁Euratom	-12621
▁absence	-12622
▁applies	-12623
▁dressed	-12624
▁komitet	-12625
▁nigdzie	-12626
▁opuścić	-12627
▁pamięci	-12628
▁pewność	-12629
▁somehow	-12630
▁tysiące	-12631
▁zawarte	-12632
▁Marshall	-12633
▁Probably	-12634
▁brothers	-12635
▁ewentual	-12636
▁geografi	-12637
▁licences	-12638
▁soldiers	-12639
▁słyszysz	-12640
▁wybaczyć	-12641
▁Słyszałeś	-12642
▁elementów	-12643
▁exception	-12644
▁obowiązki	-12645
▁przysługę	-12646
▁udowodnić	-12647
▁definition	-12648
▁laboratory	-12649
▁pierwszych	-12650
▁pomyślałem	-12651
▁resolution	-12652
▁description	-12653
▁fundamental	-12654
▁rybołówstwa	-12655
▁neighborhood	-12656
▁postanowienia	-12657
25	-12658
:2	-12659
He	-12660
00.	-12661
ays	-12662
iel	-12663
oga	-12664
zap	-12665
▁77	-12666
▁DO	-12667
awaj	-12668
ffin	-12669
miss	-12670
rzód	-12671
ściu	-12672
▁10.	-12673
▁Cop	-12674
▁ECB	-12675
▁Lex	-12676
▁Mir	-12677
▁Nik	-12678
▁Rap	-12679
▁Ton	-12680
▁etc	-12681
▁ord	-12682
▁sed	-12683
▁sha	-12684
czyni	-12685
istic	-12686
olate	-12687
styki	-12688
▁Land	-12689
▁Mist	-12690
▁Moim	-12691
▁Pick	-12692
▁aktu	-12693
▁kawę	-12694
▁miła	-12695
▁ogło	-12696
▁ścig	-12697
ancial	-12698
arters	-12699
kujesz	-12700
▁2003,	-12701
▁Enter	-12702
▁Jakiś	-12703
▁Kości	-12704
▁Susan	-12705
▁Terry	-12706
▁Wejdź	-12707
▁bound	-12708
▁certy	-12709
▁kolei	-12710
▁ośrod	-12711
▁pomóż	-12712
▁Church	-12713
▁Często	-12714
▁Jeremy	-12715
▁Michel	-12716
▁Nieźle	-12717
▁Pretty	-12718
▁Znaczy	-12719
▁butter	-12720
▁metabo	-12721
▁oszust	-12722
▁pielęg	-12723
▁piękny	-12724
▁plenty	-12725
▁poślub	-12726
▁rescue	-12727
▁rozpat	-12728
▁shower	-12729
▁spółki	-12730
▁usiąść	-12731
▁zaofer	-12732
▁zwróci	-12733
▁Ameryki	-12734
▁Parties	-12735
▁chwilkę	-12736
▁letters	-12737
▁managed	-12738
▁pleased	-12739
▁poprawy	-12740
▁pozwala	-12741
▁refunds	-12742
▁removed	-12743
▁samples	-12744
▁ubrania	-12745
▁waszego	-12746
▁whoever	-12747
▁wstrzym	-12748
▁wówczas	-12749
▁zakresu	-12750
▁założyć	-12751
▁Chodźcie	-12752
▁Powinnam	-12753
▁pracował	-12754
▁universe	-12755
▁zaczekać	-12756
▁zostawił	-12757
▁jednostek	-12758
▁nieruchom	-12759
▁practices	-12760
▁przyjmuje	-12761
▁pójdziesz	-12762
▁widziałeś	-12763
▁zapomnieć	-12764
▁controlled	-12765
▁gospodarki	-12766
▁właściwego	-12767
▁bezpiecznie	-12768
▁dochodzenia	-12769
gą	-12770
pę	-12771
koł	-12772
ąży	-12773
▁FR	-12774
▁ii	-12775
arek	-12776
gnaj	-12777
rzec	-12778
uszą	-12779
uważ	-12780
▁640	-12781
▁EBC	-12782
▁Ice	-12783
▁Sar	-12784
▁bój	-12785
▁mac	-12786
abeth	-12787
aceut	-12788
essed	-12789
garia	-12790
niono	-12791
owuje	-12792
rific	-12793
zywać	-12794
▁Clay	-12795
▁Czar	-12796
▁Gord	-12797
▁Plus	-12798
▁Puść	-12799
▁Robi	-12800
▁Shit	-12801
▁diss	-12802
▁drob	-12803
▁fest	-12804
▁ofic	-12805
▁płyn	-12806
▁rare	-12807
▁stom	-12808
▁tank	-12809
mienia	-12810
rehens	-12811
▁Brown	-12812
▁Child	-12813
▁Prote	-12814
▁Racja	-12815
▁Roger	-12816
▁Santa	-12817
▁crowd	-12818
▁język	-12819
▁ocean	-12820
▁odcis	-12821
▁odrob	-12822
▁ogień	-12823
▁owner	-12824
▁queen	-12825
▁rozum	-12826
▁spoży	-12827
▁suffe	-12828
▁users	-12829
▁łatwe	-12830
iveness	-12831
▁Anglii	-12832
▁Europa	-12833
▁Opowie	-12834
▁Witamy	-12835
▁drzwia	-12836
▁insane	-12837
▁jedzie	-12838
▁kandyd	-12839
▁kompet	-12840
▁liczbę	-12841
▁linked	-12842
▁nearly	-12843
▁odzysk	-12844
▁porusz	-12845
▁poster	-12846
▁strefy	-12847
▁uwadze	-12848
▁waited	-12849
▁wysłać	-12850
▁zaufać	-12851
▁złapać	-12852
▁Justice	-12853
▁Południ	-12854
▁Wkrótce	-12855
▁adverse	-12856
▁complex	-12857
▁comprom	-12858
▁depends	-12859
▁funding	-12860
▁imposed	-12861
▁kwestia	-12862
▁monster	-12863
▁systemy	-12864
▁uśmiech	-12865
▁wyrobów	-12866
czeństwie	-12867
▁Powinnaś	-12868
▁Saturday	-12869
▁attacked	-12870
▁chłopiec	-12871
▁declared	-12872
▁delivery	-12873
▁przepływ	-12874
▁równowag	-12875
▁thoughts	-12876
▁umieszcz	-12877
▁Wspaniale	-12878
▁celebrate	-12879
▁completed	-12880
▁wspaniałe	-12881
▁właściwym	-12882
▁mieszkania	-12883
▁skrzywdzić	-12884
▁combination	-12885
▁najlepszych	-12886
▁najszybciej	-12887
▁rzeczywiście	-12888
▁wprowadzenie	-12889
IK	-12890
No	-12891
PR	-12892
czo	-12893
hal	-12894
vie	-12895
ąpi	-12896
śni	-12897
▁73	-12898
▁AD	-12899
▁PL	-12900
▁Sł	-12901
▁dż	-12902
dźmy	-12903
ella	-12904
ller	-12905
ribe	-12906
▁Joy	-12907
▁Lot	-12908
▁Obo	-12909
▁gay	-12910
▁wes	-12911
count	-12912
gging	-12913
hamed	-12914
liłem	-12915
opher	-12916
szymi	-12917
wiaty	-12918
▁Bied	-12919
▁Cole	-12920
▁Hill	-12921
▁Save	-12922
▁Sier	-12923
▁Stos	-12924
▁Tele	-12925
▁Wpad	-12926
▁audy	-12927
▁fing	-12928
▁horm	-12929
▁kurs	-12930
▁loan	-12931
▁miły	-12932
▁pool	-12933
▁quot	-12934
▁tiss	-12935
▁zasz	-12936
▁zgad	-12937
▁Świę	-12938
aniała	-12939
dziwia	-12940
system	-12941
szczęd	-12942
▁Anton	-12943
▁Mówił	-12944
▁Tyler	-12945
▁Wielu	-12946
▁Zapyt	-12947
▁crash	-12948
▁creep	-12949
▁druga	-12950
▁koles	-12951
▁myśle	-12952
▁obiet	-12953
▁outta	-12954
▁shirt	-12955
▁stars	-12956
▁threw	-12957
▁znamy	-12958
▁ślady	-12959
cidence	-12960
▁Otwórz	-12961
▁akcept	-12962
▁buying	-12963
▁chwila	-12964
▁deszcz	-12965
▁fixing	-12966
▁kochać	-12967
▁konfli	-12968
▁kuchni	-12969
▁małych	-12970
▁mogłeś	-12971
▁nights	-12972
▁opieku	-12973
▁organu	-12974
▁rozważ	-12975
▁screen	-12976
▁skutki	-12977
▁specja	-12978
▁stocks	-12979
▁strike	-12980
▁szefem	-12981
integrow	-12982
▁Niczego	-12983
▁belongs	-12984
▁culture	-12985
▁dodatku	-12986
▁goddamn	-12987
▁install	-12988
▁jakiejś	-12989
▁kapitan	-12990
▁kawałek	-12991
▁nieprze	-12992
▁options	-12993
▁pewnych	-12994
▁pretend	-12995
▁rolnych	-12996
▁stracić	-12997
▁uniknąć	-12998
▁wytrzym	-12999
▁zespołu	-13000
alisation	-13001
▁Sprawozd	-13002
▁Wysokość	-13003
▁chłopcze	-13004
▁samochod	-13005
▁dotyczący	-13006
▁existence	-13007
▁suffering	-13008
▁uzyskania	-13009
▁derogation	-13010
▁kwalifikow	-13011
▁proportion	-13012
▁zaburzenia	-13013
▁legislative	-13014
▁niezależnie	-13015
▁stosowanych	-13016
▁administered	-13017
▁introduction	-13018
▁skuteczności	-13019
▁transactions	-13020
0.	-13021
NE	-13022
TO	-13023
UE	-13024
ky	-13025
ua	-13026
aja	-13027
ima	-13028
mii	-13029
ulu	-13030
▁ID	-13031
▁Wę	-13032
▁ep	-13033
czko	-13034
emed	-13035
pisz	-13036
usia	-13037
wana	-13038
yees	-13039
żesz	-13040
▁Dia	-13041
▁Ele	-13042
▁Hun	-13043
▁Mod	-13044
▁Pam	-13045
▁lim	-13046
▁snu	-13047
▁tun	-13048
▁tęt	-13049
ariat	-13050
cific	-13051
dzili	-13052
ośród	-13053
ridge	-13054
worth	-13055
▁Eliz	-13056
▁Fire	-13057
▁Lisa	-13058
▁Nowy	-13059
▁Pozn	-13060
▁bind	-13061
▁chap	-13062
▁nose	-13063
▁tury	-13064
father	-13065
▁Human	-13066
▁Poważ	-13067
▁Wcale	-13068
▁alien	-13069
▁ambul	-13070
▁banks	-13071
▁bibli	-13072
▁birds	-13073
▁chose	-13074
▁helps	-13075
▁matkę	-13076
▁moimi	-13077
▁north	-13078
▁smile	-13079
▁ustęp	-13080
ującymi	-13081
▁Polish	-13082
▁depend	-13083
▁okazję	-13084
▁perman	-13085
▁propor	-13086
▁przeby	-13087
▁reklam	-13088
▁remove	-13089
▁vessel	-13090
chodzisz	-13091
▁Docenia	-13092
▁Goodbye	-13093
▁Mówiłeś	-13094
▁alright	-13095
▁docenia	-13096
▁musicie	-13097
▁podobne	-13098
▁wyjdzie	-13099
▁zajmuje	-13100
▁zrobili	-13101
▁zwyczaj	-13102
▁Pamiętaj	-13103
▁adequate	-13104
▁exciting	-13105
▁facility	-13106
▁horrible	-13107
▁kłamstwo	-13108
▁supplies	-13109
▁współpra	-13110
▁Programme	-13111
▁dzieciaki	-13112
▁excluding	-13113
▁interrupt	-13114
▁personelu	-13115
▁pozostałe	-13116
▁Apparently	-13117
▁bezpieczne	-13118
▁commitment	-13119
▁negocjacji	-13120
▁disappeared	-13121
▁Europejskich	-13122
▁przeznaczenia	-13123
▁Bezpieczeństwa	-13124
'?	-13125
36	-13126
Ch	-13127
akt	-13128
edy	-13129
kot	-13130
lon	-13131
sku	-13132
uel	-13133
zym	-13134
▁2-	-13135
▁67	-13136
▁71	-13137
▁Gl	-13138
▁SA	-13139
▁ub	-13140
ader	-13141
case	-13142
comp	-13143
czel	-13144
onom	-13145
pton	-13146
rócę	-13147
trze	-13148
xico	-13149
ówek	-13150
źnia	-13151
▁Bru	-13152
▁Dro	-13153
▁Gus	-13154
▁HIV	-13155
▁Mak	-13156
▁Nam	-13157
▁Saf	-13158
▁fer	-13159
▁kad	-13160
▁mob	-13161
▁móc	-13162
asant	-13163
ching	-13164
known	-13165
lands	-13166
nąłeś	-13167
place	-13168
▁1234	-13169
▁Form	-13170
▁Powt	-13171
▁Span	-13172
▁Uwie	-13173
▁dasz	-13174
▁fate	-13175
▁golf	-13176
▁gwał	-13177
▁miej	-13178
▁mowy	-13179
▁piwo	-13180
▁potw	-13181
▁seni	-13182
▁trwa	-13183
▁upro	-13184
czości	-13185
enance	-13186
kowane	-13187
ozycji	-13188
▁2009,	-13189
▁Class	-13190
▁Julie	-13191
▁Night	-13192
▁alert	-13193
▁chcia	-13194
▁danej	-13195
▁marks	-13196
▁pobie	-13197
▁przym	-13198
▁pułap	-13199
▁route	-13200
▁shape	-13201
▁wojnę	-13202
▁łóżku	-13203
likacji	-13204
▁Północ	-13205
▁Zakład	-13206
▁Zrozum	-13207
▁buried	-13208
▁center	-13209
▁decent	-13210
▁degree	-13211
▁female	-13212
▁modern	-13213
▁objęte	-13214
▁oddech	-13215
▁piersi	-13216
▁prawne	-13217
▁przysp	-13218
▁reszta	-13219
▁secure	-13220
▁statki	-13221
▁ticket	-13222
▁układu	-13223
▁vision	-13224
▁Jessica	-13225
▁Members	-13226
▁ekologi	-13227
▁initial	-13228
▁kryzysu	-13229
▁odpadów	-13230
▁oglądać	-13231
▁ordered	-13232
▁pogrzeb	-13233
▁precise	-13234
▁prepare	-13235
▁robicie	-13236
▁sectors	-13237
▁zapomin	-13238
▁zgadzam	-13239
▁Niedługo	-13240
▁Szwajcar	-13241
▁Zapomnij	-13242
▁customer	-13243
▁distance	-13244
▁entirely	-13245
▁mogłabym	-13246
▁następny	-13247
▁pomyśleć	-13248
▁równoważ	-13249
▁suffered	-13250
▁wstrzyki	-13251
▁wyglądać	-13252
▁znaleźli	-13253
▁Słyszałam	-13254
▁continued	-13255
▁employees	-13256
▁immediate	-13257
▁obszarach	-13258
▁pozostaje	-13259
▁przynieść	-13260
▁przyszłym	-13261
▁przechodzi	-13262
▁appointment	-13263
▁destination	-13264
▁temperature	-13265
▁przeprowadzić	-13266
▁Prawdopodobnie	-13267
In	-13268
UL	-13269
640	-13270
bił	-13271
cen	-13272
krę	-13273
miu	-13274
cona	-13275
eter	-13276
fuck	-13277
nęli	-13278
omed	-13279
▁FOR	-13280
▁Jay	-13281
▁bon	-13282
▁kab	-13283
▁ner	-13284
amber	-13285
armon	-13286
kanie	-13287
owiec	-13288
▁Ależ	-13289
▁Bost	-13290
▁Lane	-13291
▁Pull	-13292
▁Test	-13293
▁Wart	-13294
▁cult	-13295
▁dosy	-13296
▁grew	-13297
▁nuts	-13298
▁pływ	-13299
▁ręka	-13300
▁sett	-13301
▁siłę	-13302
▁tary	-13303
▁tkan	-13304
▁upły	-13305
▁vent	-13306
▁wiat	-13307
▁wodę	-13308
▁świą	-13309
action	-13310
fikują	-13311
▁Jacob	-13312
▁bydła	-13313
▁monet	-13314
▁occup	-13315
▁steal	-13316
▁steel	-13317
▁trend	-13318
▁uczni	-13319
▁warto	-13320
▁widok	-13321
▁Zdecyd	-13322
▁breath	-13323
▁byłaby	-13324
▁chosen	-13325
▁claims	-13326
▁forest	-13327
▁gwaran	-13328
▁jądrow	-13329
▁lonely	-13330
▁oddych	-13331
▁rozwin	-13332
▁satisf	-13333
▁stworz	-13334
▁switch	-13335
▁szerok	-13336
▁uspoko	-13337
▁wracam	-13338
▁wygrać	-13339
▁własną	-13340
▁zamian	-13341
▁łazien	-13342
▁Zarządz	-13343
▁alcohol	-13344
▁contest	-13345
▁doctors	-13346
▁dokonać	-13347
▁dowodzi	-13348
▁indziej	-13349
▁journey	-13350
▁przegra	-13351
▁skojarz	-13352
▁variety	-13353
▁zamknąć	-13354
▁zobaczę	-13355
▁zostanę	-13356
▁Administ	-13357
▁błogosła	-13358
▁lepszego	-13359
▁miesiącu	-13360
▁sprzeciw	-13361
▁dyrektywę	-13362
▁estimated	-13363
▁intention	-13364
▁określony	-13365
▁performed	-13366
▁podmiotów	-13367
▁pracujesz	-13368
▁promotion	-13369
▁wprowadza	-13370
▁zalecenia	-13371
▁calculated	-13372
▁industrial	-13373
▁poniedział	-13374
▁television	-13375
▁współpracę	-13376
▁przypomnieć	-13377
▁Członkowskim	-13378
▁certificates	-13379
▁odpowiedzieć	-13380
▁infrastructure	-13381
19	-13382
alo	-13383
nom	-13384
ogę	-13385
oot	-13386
ław	-13387
żek	-13388
▁99	-13389
▁db	-13390
aron	-13391
burg	-13392
erap	-13393
ided	-13394
któw	-13395
with	-13396
órek	-13397
żsam	-13398
▁Cut	-13399
▁Ins	-13400
▁Kop	-13401
▁ONZ	-13402
▁Rol	-13403
▁Taj	-13404
▁Zoe	-13405
▁gej	-13406
▁les	-13407
▁ląd	-13408
dźcie	-13409
ektów	-13410
miało	-13411
stery	-13412
łanie	-13413
▁Całe	-13414
▁Date	-13415
▁Down	-13416
▁Gall	-13417
▁Isab	-13418
▁Pacj	-13419
▁cous	-13420
▁desk	-13421
▁dużą	-13422
▁fill	-13423
▁ukoń	-13424
▁zamy	-13425
owywać	-13426
szczeń	-13427
usting	-13428
▁Belie	-13429
▁Facet	-13430
▁Pozwo	-13431
▁ambit	-13432
▁chory	-13433
▁dosyć	-13434
▁hyper	-13435
▁immun	-13436
▁kraje	-13437
▁leads	-13438
▁małej	-13439
▁motyw	-13440
▁nurse	-13441
▁resol	-13442
▁slept	-13443
▁stali	-13444
▁teeth	-13445
▁trwał	-13446
▁ściąg	-13447
inafter	-13448
▁Depart	-13449
▁Justin	-13450
▁Owszem	-13451
▁Presid	-13452
▁Staram	-13453
▁Szukam	-13454
▁barely	-13455
▁czasów	-13456
▁forces	-13457
▁liczyć	-13458
▁mówimy	-13459
▁priest	-13460
▁profil	-13461
▁spokoj	-13462
▁spytać	-13463
▁zarzut	-13464
▁zginął	-13465
▁zobacz	-13466
▁Angeles	-13467
▁Austria	-13468
▁Develop	-13469
▁Dopiero	-13470
▁Patrick	-13471
▁badanie	-13472
▁jealous	-13473
▁koncent	-13474
▁nowhere	-13475
▁odzwier	-13476
▁pozycję	-13477
▁profile	-13478
▁subsequ	-13479
▁wynoszą	-13480
▁Tomorrow	-13481
▁agencies	-13482
▁breaking	-13483
▁minister	-13484
▁podjęcia	-13485
▁recorded	-13486
▁strategi	-13487
▁szczerze	-13488
▁wspólnie	-13489
▁wydostać	-13490
▁Rozumiesz	-13491
▁fisheries	-13492
▁szczepion	-13493
▁facilitate	-13494
▁określonej	-13495
▁veterinary	-13496
▁znajdziesz	-13497
▁alternative	-13498
▁hereinafter	-13499
▁maintenance	-13500
▁określonego	-13501
▁restauracji	-13502
▁uprawnienia	-13503
▁Potrzebujesz	-13504
▁Powiedziałeś	-13505
▁europejskiej	-13506
▁instructions	-13507
▁zmniejszenie	-13508
▁significantly	-13509
▁ustanawiającego	-13510
.7	-13511
SR	-13512
sę	-13513
.19	-13514
And	-13515
aść	-13516
bre	-13517
suń	-13518
▁IF	-13519
irur	-13520
wide	-13521
▁Had	-13522
▁Hay	-13523
▁Ode	-13524
▁Stu	-13525
▁Zaz	-13526
▁blu	-13527
▁piw	-13528
▁pić	-13529
▁sez	-13530
▁sne	-13531
▁tch	-13532
▁wra	-13533
▁www	-13534
emplo	-13535
istry	-13536
riers	-13537
rocie	-13538
stone	-13539
szone	-13540
uting	-13541
▁1993	-13542
▁Conf	-13543
▁Easy	-13544
▁babe	-13545
▁brud	-13546
▁gazu	-13547
▁głęb	-13548
▁koło	-13549
▁kuzy	-13550
▁scar	-13551
elling	-13552
engers	-13553
▁Hanna	-13554
▁Narod	-13555
▁Przem	-13556
▁Rebec	-13557
▁armed	-13558
▁asyst	-13559
▁charm	-13560
▁czasy	-13561
▁czyni	-13562
▁fabry	-13563
▁gover	-13564
▁kwotę	-13565
▁prosi	-13566
▁recon	-13567
▁robot	-13568
▁strat	-13569
▁wezmę	-13570
▁zmart	-13571
▁Świad	-13572
ającymi	-13573
illions	-13574
irlines	-13575
▁Joseph	-13576
▁dniach	-13577
▁dyrekt	-13578
▁excess	-13579
▁headed	-13580
▁intend	-13581
▁movies	-13582
▁orygin	-13583
▁połowę	-13584
▁przywi	-13585
▁zaplan	-13586
culation	-13587
▁Musicie	-13588
▁Później	-13589
▁Traktat	-13590
▁article	-13591
▁becomes	-13592
▁chodźmy	-13593
▁dotrzeć	-13594
▁highest	-13595
▁klimatu	-13596
▁kontyng	-13597
▁miałbym	-13598
▁momentu	-13599
▁produce	-13600
▁secrets	-13601
▁wrócisz	-13602
▁zadania	-13603
▁łącznie	-13604
▁Obiecuję	-13605
▁cultural	-13606
▁doczekać	-13607
▁dystrybu	-13608
▁dziwnego	-13609
▁entities	-13610
▁grateful	-13611
▁nazwiska	-13612
▁obejmują	-13613
▁określić	-13614
▁poczucie	-13615
▁podobnie	-13616
▁prawodaw	-13617
▁properly	-13618
▁reaction	-13619
▁zniszczy	-13620
▁Hiszpanii	-13621
▁brilliant	-13622
▁exceeding	-13623
▁humanitar	-13624
▁justified	-13625
▁kolejnych	-13626
▁protected	-13627
▁wspólnych	-13628
▁Chwileczkę	-13629
▁classified	-13630
▁faktycznie	-13631
▁odzwiercie	-13632
▁wydarzenia	-13633
▁Europejskim	-13634
▁communicate	-13635
▁declaration	-13636
▁Najwyraźniej	-13637
▁participation	-13638
▁przedstawione	-13639
▁representatives	-13640
rt	-13641
ceń	-13642
eta	-13643
hem	-13644
ige	-13645
leb	-13646
▁81	-13647
▁86	-13648
▁cm	-13649
anów	-13650
aryn	-13651
cznę	-13652
hent	-13653
ourg	-13654
usty	-13655
uści	-13656
▁10,	-13657
▁Kla	-13658
▁Lyn	-13659
▁Tar	-13660
▁unf	-13661
▁zbo	-13662
adamy	-13663
miemy	-13664
niała	-13665
odzie	-13666
szony	-13667
uries	-13668
vable	-13669
verty	-13670
▁2020	-13671
▁Będą	-13672
▁Choć	-13673
▁Marg	-13674
▁Sied	-13675
▁Tęsk	-13676
▁Usią	-13677
▁akta	-13678
▁dram	-13679
▁flex	-13680
▁gods	-13681
▁jury	-13682
▁lice	-13683
▁nerw	-13684
▁piąt	-13685
▁runs	-13686
▁toks	-13687
▁zone	-13688
▁złym	-13689
ateral	-13690
branie	-13691
lients	-13692
puścić	-13693
▁Chcie	-13694
▁Domin	-13695
▁Grant	-13696
▁Light	-13697
▁Udało	-13698
▁Wezmę	-13699
▁explo	-13700
▁kamer	-13701
▁napad	-13702
▁nałoż	-13703
▁ocenę	-13704
▁quota	-13705
▁roman	-13706
▁zwari	-13707
urities	-13708
ńskiego	-13709
▁Anyone	-13710
▁Monday	-13711
▁Został	-13712
▁attend	-13713
▁beauty	-13714
▁borrow	-13715
▁centre	-13716
▁exclus	-13717
▁lecieć	-13718
▁ochotę	-13719
▁papers	-13720
▁partii	-13721
▁podwyż	-13722
▁przodu	-13723
▁rękach	-13724
▁sexual	-13725
▁spring	-13726
▁takimi	-13727
▁zaprze	-13728
▁Gabriel	-13729
▁Spanish	-13730
▁dancing	-13731
▁excited	-13732
▁miliony	-13733
▁niepoko	-13734
▁przysto	-13735
▁słychać	-13736
▁uruchom	-13737
▁machines	-13738
▁messages	-13739
▁nieważne	-13740
▁zamierza	-13741
▁Transport	-13742
▁carefully	-13743
▁infection	-13744
▁najlepsza	-13745
▁najlepszą	-13746
▁positions	-13747
▁urodzenia	-13748
▁adjustment	-13749
▁conformity	-13750
▁initiative	-13751
▁odstępstwa	-13752
▁officially	-13753
▁skorzystać	-13754
▁zachowania	-13755
▁niesprawied	-13756
▁powiedzieli	-13757
▁transmission	-13758
▁verification	-13759
▁zainteresowane	-13760
32	-13761
SC	-13762
cać	-13763
isc	-13764
mal	-13765
▁AT	-13766
▁UK	-13767
-200	-13768
czku	-13769
kowo	-13770
kową	-13771
liss	-13772
nell	-13773
utki	-13774
zing	-13775
ński	-13776
▁Cud	-13777
▁Est	-13778
▁Hor	-13779
▁PRZ	-13780
▁Ren	-13781
▁Uro	-13782
▁dar	-13783
▁śpi	-13784
anges	-13785
ardon	-13786
bling	-13787
czyny	-13788
elled	-13789
grani	-13790
jects	-13791
phone	-13792
▁1994	-13793
▁Crow	-13794
▁Dick	-13795
▁Rest	-13796
▁Stef	-13797
▁bite	-13798
▁nasi	-13799
▁ojcu	-13800
▁rosy	-13801
▁tore	-13802
▁ufać	-13803
▁usta	-13804
▁valu	-13805
▁wyrz	-13806
ionymi	-13807
mother	-13808
▁Count	-13809
▁Który	-13810
▁Pomoc	-13811
▁Umowy	-13812
▁Wayne	-13813
▁Wynoś	-13814
▁Zdrow	-13815
▁atrak	-13816
▁awake	-13817
▁badaw	-13818
▁brave	-13819
▁chest	-13820
▁games	-13821
▁prosp	-13822
▁półno	-13823
▁scare	-13824
▁spare	-13825
▁ukoch	-13826
▁ważny	-13827
▁wywóz	-13828
▁zauwa	-13829
ignment	-13830
kowanie	-13831
▁Adrian	-13832
▁Doskon	-13833
▁Sophie	-13834
▁Stanów	-13835
▁Sunday	-13836
▁cancel	-13837
▁crying	-13838
▁cukier	-13839
▁inspek	-13840
▁mainly	-13841
▁miałaś	-13842
▁modlit	-13843
▁odbior	-13844
▁opinią	-13845
▁photos	-13846
▁player	-13847
▁pokład	-13848
▁shadow	-13849
▁studio	-13850
▁waszym	-13851
▁władzy	-13852
▁zabawy	-13853
▁zapach	-13854
niejszym	-13855
▁Charlot	-13856
▁Company	-13857
▁Finland	-13858
▁closely	-13859
▁concept	-13860
▁distort	-13861
▁examine	-13862
▁przemie	-13863
▁sposobu	-13864
▁sześciu	-13865
▁uciekać	-13866
▁waszych	-13867
▁zabiłem	-13868
▁Jedziemy	-13869
▁covering	-13870
▁familiar	-13871
▁oprogram	-13872
▁południu	-13873
▁programy	-13874
▁vacation	-13875
▁whenever	-13876
▁wierzysz	-13877
▁fantastic	-13878
▁postanowi	-13879
▁potrzebny	-13880
▁zamknięte	-13881
▁Informacje	-13882
▁automatycz	-13883
▁innovation	-13884
▁sprawozdań	-13885
▁zagrożenie	-13886
▁Information	-13887
▁świadczenia	-13888
▁coordination	-13889
▁niezwłocznie	-13890
▁contributions	-13891
▁ustanawiające	-13892
9.	-13893
jo	-13894
att	-13895
cow	-13896
eur	-13897
ios	-13898
pet	-13899
ube	-13900
ums	-13901
wit	-13902
łom	-13903
ńcu	-13904
anką	-13905
ałby	-13906
enta	-13907
gami	-13908
ghan	-13909
▁Ana	-13910
▁Lor	-13911
▁Lux	-13912
▁Tex	-13913
▁fif	-13914
▁tan	-13915
▁vir	-13916
▁łap	-13917
encer	-13918
osing	-13919
zajem	-13920
▁1996	-13921
▁Anne	-13922
▁Flor	-13923
▁Free	-13924
▁Glen	-13925
▁Iran	-13926
▁Mean	-13927
▁Mogą	-13928
▁Prin	-13929
▁Wall	-13930
▁admi	-13931
▁akty	-13932
▁deny	-13933
▁enem	-13934
▁expl	-13935
▁fake	-13936
▁fort	-13937
▁jezi	-13938
▁kraw	-13939
▁mobi	-13940
▁pair	-13941
▁poll	-13942
▁rozd	-13943
▁sees	-13944
▁spie	-13945
▁tlen	-13946
czyków	-13947
ipping	-13948
okinet	-13949
▁2006,	-13950
▁2008,	-13951
▁Laura	-13952
▁River	-13953
▁coast	-13954
▁gadać	-13955
▁księg	-13956
▁neuro	-13957
▁prysz	-13958
▁shore	-13959
▁stood	-13960
▁sword	-13961
▁tasks	-13962
▁winny	-13963
▁zadań	-13964
▁zgadz	-13965
nionego	-13966
▁Carlos	-13967
▁Lubisz	-13968
▁Mexico	-13969
▁Nowego	-13970
▁Olivia	-13971
▁Parker	-13972
▁Rzeczy	-13973
▁Social	-13974
▁invite	-13975
▁multip	-13976
▁niedob	-13977
▁ocenie	-13978
▁oczach	-13979
▁pomogę	-13980
▁powody	-13981
▁pozbaw	-13982
▁romans	-13983
▁sekcji	-13984
▁spotyk	-13985
▁stayed	-13986
▁treści	-13987
▁wierzą	-13988
▁zabrał	-13989
▁zauważ	-13990
▁zgroma	-13991
▁żyjesz	-13992
▁Centrum	-13993
▁Zauważy	-13994
▁burning	-13995
▁fingers	-13996
▁granicy	-13997
▁konstru	-13998
▁license	-13999
▁mogłaby	-14000
▁podaniu	-14001
▁porówny	-14002
▁recital	-14003
▁soldier	-14004
▁stomach	-14005
▁wróciła	-14006
▁Moreover	-14007
▁aircraft	-14008
▁ciężarów	-14009
▁conflict	-14010
▁eksploat	-14011
▁elementy	-14012
▁football	-14013
▁memories	-14014
▁normally	-14015
▁powiadam	-14016
▁stężenie	-14017
▁zapobiec	-14018
▁generally	-14019
▁languages	-14020
▁otrzymuje	-14021
▁specjalne	-14022
▁zwierzęta	-14023
▁Słuchajcie	-14024
▁categories	-14025
▁prezydenta	-14026
▁utrzymania	-14027
▁Regulations	-14028
▁investments	-14029
▁mieszkańców	-14030
▁potrzebować	-14031
▁skontaktować	-14032
▁europejskiego	-14033
▁gospodarczych	-14034
▁uwzględnieniem	-14035
anc	-14036
ows	-14037
uły	-14038
wel	-14039
▁Cu	-14040
.201	-14041
iana	-14042
iery	-14043
kcja	-14044
nies	-14045
ruje	-14046
▁Aff	-14047
▁Ari	-14048
▁Guy	-14049
▁Mmm	-14050
▁Sel	-14051
▁Yep	-14052
▁bac	-14053
▁bol	-14054
▁fur	-14055
▁hur	-14056
▁lad	-14057
▁oka	-14058
▁łam	-14059
cknow	-14060
hered	-14061
racja	-14062
rough	-14063
ubern	-14064
▁Anth	-14065
▁Bryt	-14066
▁Były	-14067
▁Card	-14068
▁Dasz	-14069
▁Zwyk	-14070
▁cong	-14071
▁dała	-14072
▁item	-14073
▁krym	-14074
▁obję	-14075
▁pięt	-14076
▁poko	-14077
▁potr	-14078
▁pouf	-14079
▁skór	-14080
▁sądu	-14081
.2004,	-14082
orough	-14083
▁Grupa	-14084
▁Nancy	-14085
▁Robię	-14086
▁Wendy	-14087
▁Wykon	-14088
▁block	-14089
▁cicho	-14090
▁danym	-14091
▁doors	-14092
▁mamie	-14093
▁Amanda	-14094
▁Dajcie	-14095
▁Obserw	-14096
▁Sądzie	-14097
▁artist	-14098
▁dumped	-14099
▁famous	-14100
▁income	-14101
▁prawdą	-14102
▁przyst	-14103
▁strugg	-14104
▁udawać	-14105
▁zabawa	-14106
chodzimy	-14107
▁Niemiec	-14108
▁Podobno	-14109
▁Strateg	-14110
▁banknot	-14111
▁biologi	-14112
▁clients	-14113
▁experts	-14114
▁factory	-14115
▁inspect	-14116
▁nastąpi	-14117
▁odszedł	-14118
▁rodzaje	-14119
▁spośród	-14120
▁version	-14121
alifornia	-14122
▁Szybciej	-14123
▁becoming	-14124
▁creation	-14125
▁głównych	-14126
▁identify	-14127
▁interesy	-14128
▁interwen	-14129
▁kwestion	-14130
▁pozostać	-14131
▁rodzajów	-14132
▁romantic	-14133
▁różnorod	-14134
▁surround	-14135
▁sądziłem	-14136
▁zmieniło	-14137
▁Dyrektywa	-14138
▁conducted	-14139
▁gwarancji	-14140
▁niektórzy	-14141
▁zintegrow	-14142
▁components	-14143
▁discovered	-14144
▁finansowej	-14145
▁oficjalnie	-14146
▁ostatniego	-14147
▁photograph	-14148
▁postanowie	-14149
▁Furthermore	-14150
▁odniesienia	-14151
▁wyłączeniem	-14152
▁Powiedziałaś	-14153
▁consultation	-14154
▁developments	-14155
▁użytkowników	-14156
▁wewnętrznego	-14157
▁corresponding	-14158
CB	-14159
DZ	-14160
IB	-14161
UM	-14162
ęt	-14163
box	-14164
boy	-14165
bów	-14166
iak	-14167
lix	-14168
pię	-14169
sun	-14170
uta	-14171
zny	-14172
▁Kl	-14173
▁Ku	-14174
▁Zu	-14175
▁uk	-14176
czyk	-14177
hile	-14178
iler	-14179
lite	-14180
radz	-14181
rawa	-14182
ropo	-14183
umin	-14184
wall	-14185
▁Cat	-14186
▁Kel	-14187
▁Kry	-14188
▁Oby	-14189
▁Pen	-14190
▁Pur	-14191
▁Waż	-14192
▁Wyt	-14193
▁szó	-14194
▁tap	-14195
▁tip	-14196
ained	-14197
akiem	-14198
enses	-14199
liwić	-14200
rozen	-14201
żynie	-14202
▁Best	-14203
▁Buck	-14204
▁Coll	-14205
▁Dear	-14206
▁Głos	-14207
▁Rzym	-14208
▁bill	-14209
▁buty	-14210
▁cure	-14211
▁cywi	-14212
▁czuj	-14213
▁emit	-14214
▁gest	-14215
▁omów	-14216
▁podp	-14217
▁reag	-14218
▁roli	-14219
▁taks	-14220
▁traw	-14221
▁twoi	-14222
▁ulot	-14223
▁zdob	-14224
▁zezn	-14225
ashion	-14226
ałabym	-14227
cyjnym	-14228
jedzie	-14229
▁2009.	-14230
▁Byłaś	-14231
▁Ellen	-14232
▁Jamie	-14233
▁Lucas	-14234
▁Podej	-14235
▁Szczę	-14236
▁Zabaw	-14237
▁alibi	-14238
▁bogat	-14239
▁boską	-14240
▁fever	-14241
▁głosu	-14242
▁kinda	-14243
▁nerek	-14244
▁nieod	-14245
▁niest	-14246
▁scale	-14247
▁shock	-14248
▁survi	-14249
▁szpie	-14250
▁taryf	-14251
▁uczyć	-14252
▁zakaż	-14253
bieramy	-14254
fikacja	-14255
istical	-14256
plement	-14257
theless	-14258
ychczas	-14259
▁Byłoby	-14260
▁Indian	-14261
▁Indust	-14262
▁Prince	-14263
▁Safety	-14264
▁Willia	-14265
▁abyśmy	-14266
▁affair	-14267
▁betray	-14268
▁brzuch	-14269
▁corpor	-14270
▁decydu	-14271
▁diabet	-14272
▁fought	-14273
▁fright	-14274
▁genius	-14275
▁guests	-14276
▁opłaty	-14277
▁psychi	-14278
▁simpli	-14279
▁sprzęt	-14280
▁sąsiad	-14281
▁tożsam	-14282
▁Ciekawe	-14283
▁Senator	-14284
▁Sheriff	-14285
▁Tonight	-14286
▁bohater	-14287
▁młodych	-14288
▁napisał	-14289
▁objawów	-14290
▁operate	-14291
▁przenie	-14292
▁rapport	-14293
▁spędzić	-14294
▁tickets	-14295
▁upewnić	-14296
▁wydatki	-14297
▁wymyśli	-14298
▁Gospodar	-14299
▁Ostatnio	-14300
▁behavior	-14301
▁contrary	-14302
▁duration	-14303
▁leczeniu	-14304
▁odpocząć	-14305
▁platform	-14306
▁register	-14307
▁włącznie	-14308
▁zawiadom	-14309
▁Charlotte	-14310
▁Gentlemen	-14311
▁Zatrzymaj	-14312
▁miejscach	-14313
▁potrafisz	-14314
▁profesjon	-14315
▁pójdziemy	-14316
▁spełnione	-14317
▁supported	-14318
▁Przysięgam	-14319
▁handlowych	-14320
▁profession	-14321
▁statistics	-14322
▁stwierdzić	-14323
▁zawartości	-14324
▁perspective	-14325
▁prawdopodob	-14326
▁prawdziwego	-14327
▁registration	-14328
▁consideration	-14329
▁identification	-14330
▁przedstawienia	-14331
▁zabezpieczenia	-14332
Co	-14333
LE	-14334
PP	-14335
US	-14336
hm	-14337
ox	-14338
óp	-14339
bid	-14340
ees	-14341
gue	-14342
hab	-14343
roj	-14344
▁Lt	-14345
▁uś	-14346
bian	-14347
bytu	-14348
cert	-14349
czuć	-14350
etch	-14351
frow	-14352
iest	-14353
ille	-14354
lami	-14355
road	-14356
świe	-14357
▁Amb	-14358
▁Cos	-14359
▁Cur	-14360
▁Joh	-14361
▁Luk	-14362
▁Sin	-14363
▁Sud	-14364
▁Woj	-14365
▁Wła	-14366
▁cha	-14367
▁dip	-14368
▁eth	-14369
▁jam	-14370
▁oby	-14371
▁łas	-14372
anied	-14373
dynek	-14374
earch	-14375
enial	-14376
niósł	-14377
orses	-14378
rance	-14379
rytyj	-14380
▁2015	-14381
▁Aunt	-14382
▁Byli	-14383
▁Chor	-14384
▁Dane	-14385
▁Girl	-14386
▁Hale	-14387
▁Kong	-14388
▁Lore	-14389
▁VIII	-14390
▁Złap	-14391
▁argu	-14392
▁bond	-14393
▁dece	-14394
▁garn	-14395
▁kont	-14396
▁krop	-14397
▁mood	-14398
▁nies	-14399
▁oczu	-14400
▁raka	-14401
▁tłum	-14402
▁wave	-14403
▁wolę	-14404
arency	-14405
coming	-14406
tyczne	-14407
ństwie	-14408
▁2002,	-14409
▁Davis	-14410
▁Gibbs	-14411
▁Nazyw	-14412
▁Roman	-14413
▁Serio	-14414
▁bagaż	-14415
▁cheer	-14416
▁codes	-14417
▁image	-14418
▁koryt	-14419
▁kwota	-14420
▁odnot	-14421
▁poseł	-14422
▁posła	-14423
▁pożeg	-14424
▁prace	-14425
▁remem	-14426
▁sierż	-14427
▁skóry	-14428
▁szuka	-14429
▁zajmę	-14430
▁Office	-14431
▁Oprócz	-14432
▁Virgin	-14433
▁burned	-14434
▁cheese	-14435
▁factor	-14436
▁legend	-14437
▁lights	-14438
▁milion	-14439
▁nadzor	-14440
▁ocalić	-14441
▁spacer	-14442
▁studia	-14443
▁szereg	-14444
▁tunnel	-14445
▁tworzy	-14446
▁wypłac	-14447
▁Anybody	-14448
▁Problem	-14449
▁Stanach	-14450
▁Vincent	-14451
▁burmist	-14452
▁devices	-14453
▁divorce	-14454
▁engaged	-14455
▁funeral	-14456
▁imprezę	-14457
▁kultury	-14458
▁obszaru	-14459
▁poverty	-14460
▁przegap	-14461
▁przewoź	-14462
▁reprodu	-14463
▁rozczar	-14464
▁telewiz	-14465
▁younger	-14466
▁zatwier	-14467
▁zmienił	-14468
▁świetne	-14469
▁Margaret	-14470
▁changing	-14471
▁chciałby	-14472
▁director	-14473
▁dziesięć	-14474
▁extended	-14475
▁niewiele	-14476
▁przynios	-14477
▁rejected	-14478
▁rozdział	-14479
▁stworzyć	-14480
▁teaching	-14481
▁zauważyć	-14482
▁dotyczącą	-14483
▁porozumie	-14484
▁sensitive	-14485
▁szczegóły	-14486
▁zobaczysz	-14487
▁Pomyślałem	-14488
▁Powodzenia	-14489
▁należności	-14490
▁następnego	-14491
▁percentage	-14492
▁przypomina	-14493
▁situations	-14494
▁długotermin	-14495
▁społecznych	-14496
▁infrastruktury	-14497
91	-14498
bry	-14499
cka	-14500
lom	-14501
nan	-14502
ruj	-14503
tim	-14504
▁62	-14505
▁Ka	-14506
▁Oc	-14507
dale	-14508
iner	-14509
szkę	-14510
▁Atl	-14511
▁Ina	-14512
▁Won	-14513
▁ate	-14514
▁cła	-14515
▁mum	-14516
▁tie	-14517
aging	-14518
ciąga	-14519
guard	-14520
itter	-14521
orney	-14522
tical	-14523
ulate	-14524
uster	-14525
uścić	-14526
▁Calm	-14527
▁Czes	-14528
▁Dana	-14529
▁Finn	-14530
▁Komu	-14531
▁Wsch	-14532
▁duża	-14533
▁plas	-14534
▁ruin	-14535
▁sher	-14536
▁tatu	-14537
▁umys	-14538
rzałem	-14539
▁Again	-14540
▁Bierz	-14541
▁Close	-14542
▁Wnios	-14543
▁Wycho	-14544
▁boisz	-14545
▁bucks	-14546
▁clock	-14547
▁crack	-14548
▁dwoma	-14549
▁firma	-14550
▁fraud	-14551
▁gross	-14552
▁knock	-14553
▁loose	-14554
▁noted	-14555
▁osiem	-14556
▁parku	-14557
▁penal	-14558
▁staro	-14559
▁stopy	-14560
▁węgla	-14561
▁zarab	-14562
▁zezwo	-14563
▁złoży	-14564
▁ścież	-14565
▁Biorąc	-14566
▁County	-14567
▁Lauren	-14568
▁Strasz	-14569
▁breast	-14570
▁cieszy	-14571
▁formal	-14572
▁głodny	-14573
▁odebra	-14574
▁ogólne	-14575
▁polega	-14576
▁prosec	-14577
▁ruszać	-14578
▁spoken	-14579
▁strict	-14580
▁strzał	-14581
▁suffer	-14582
▁sztuki	-14583
▁tariff	-14584
▁użyciu	-14585
▁żadnym	-14586
entially	-14587
odyfikow	-14588
▁Obecnie	-14589
▁Skarbie	-14590
▁Spencer	-14591
▁ashamed	-14592
▁charged	-14593
▁chicken	-14594
▁enemies	-14595
▁któremu	-14596
▁mogłyby	-14597
▁praktyk	-14598
▁receipt	-14599
▁trwania	-14600
▁wchodzą	-14601
▁wyczerp	-14602
▁wystąpi	-14603
▁Doceniam	-14604
▁Michelle	-14605
▁Poważnie	-14606
▁attorney	-14607
▁baseball	-14608
▁bullshit	-14609
▁dostałem	-14610
▁incorpor	-14611
▁laughing	-14612
▁occurred	-14613
▁politykę	-14614
▁poradzić	-14615
▁samolotu	-14616
▁systemie	-14617
▁szacunku	-14618
▁zdolność	-14619
▁Hollywood	-14620
▁natomiast	-14621
▁podejście	-14622
▁słyszałam	-14623
▁wspaniały	-14624
▁wyciągnąć	-14625
▁dyrektywie	-14626
▁incredible	-14627
▁kontrolować	-14628
▁kontynuować	-14629
▁najlepszego	-14630
▁partnership	-14631
▁rejestracji	-14632
02	-14633
71	-14634
AB	-14635
FO	-14636
sc	-14637
YCH	-14638
roc	-14639
tki	-14640
▁Av	-14641
▁NO	-14642
▁RO	-14643
▁gę	-14644
arem	-14645
arką	-14646
awał	-14647
czce	-14648
cząc	-14649
erii	-14650
free	-14651
oebe	-14652
łusz	-14653
▁250	-14654
▁Ann	-14655
▁Las	-14656
▁Peł	-14657
▁Sid	-14658
▁Yet	-14659
▁gre	-14660
▁joy	-14661
▁kum	-14662
▁sky	-14663
▁usu	-14664
▁vul	-14665
▁Cała	-14666
▁Zgad	-14667
▁capt	-14668
▁dumb	-14669
▁elev	-14670
▁jadę	-14671
▁meal	-14672
▁naro	-14673
▁stóp	-14674
▁twór	-14675
▁udać	-14676
▁unus	-14677
▁vamp	-14678
▁wash	-14679
▁whoa	-14680
coated	-14681
lanzap	-14682
stawaj	-14683
ughter	-14684
▁Casey	-14685
▁Długo	-14686
▁Oboje	-14687
▁Phili	-14688
▁Pozna	-14689
▁Ready	-14690
▁Sally	-14691
▁biuro	-14692
▁devil	-14693
▁ignor	-14694
▁lewej	-14695
▁loyal	-14696
▁magaz	-14697
▁młoda	-14698
▁naked	-14699
▁normy	-14700
▁ponow	-14701
▁rozwa	-14702
▁seats	-14703
▁umrze	-14704
▁volun	-14705
▁warte	-14706
▁wasza	-14707
▁zapoz	-14708
▁znany	-14709
nęliśmy	-14710
ocolate	-14711
▁Juliet	-14712
▁Napraw	-14713
▁Phoebe	-14714
▁Proced	-14715
▁Region	-14716
▁Strony	-14717
▁analog	-14718
▁desire	-14719
▁filled	-14720
▁grupie	-14721
▁journa	-14722
▁mostly	-14723
▁opinię	-14724
▁pissed	-14725
▁próbki	-14726
▁regime	-14727
▁stable	-14728
▁sypial	-14729
▁trzyma	-14730
▁zabiję	-14731
▁Anthony	-14732
▁Przypom	-14733
▁Romania	-14734
▁channel	-14735
▁ciężkie	-14736
▁conclus	-14737
▁pharmac	-14738
▁primary	-14739
▁przycho	-14740
▁refused	-14741
▁schemes	-14742
▁sending	-14743
▁spodoba	-14744
▁szkodzi	-14745
▁tablets	-14746
▁wykonać	-14747
▁wymagań	-14748
▁zrealiz	-14749
▁Poproszę	-14750
▁Przepisy	-14751
▁controls	-14752
▁geograph	-14753
▁kontaktu	-14754
▁modified	-14755
▁nawzajem	-14756
▁officers	-14757
▁podmioty	-14758
▁pokazuje	-14759
▁sentence	-14760
▁stowarzy	-14761
▁suitable	-14762
▁zapamięt	-14763
▁znalazła	-14764
▁Seriously	-14765
▁amendment	-14766
▁kryteriów	-14767
▁mechanism	-14768
▁niniejszą	-14769
▁potrzebna	-14770
▁programie	-14771
▁trudności	-14772
▁trzeciego	-14773
▁własności	-14774
▁znalazłam	-14775
▁accounting	-14776
▁allocation	-14777
▁confidence	-14778
▁inicjatywy	-14779
▁permission	-14780
▁społecznej	-14781
▁wykonawcze	-14782
▁yourselves	-14783
▁zwalczania	-14784
▁explanation	-14785
▁preparation	-14786
▁zawierające	-14787
▁technicznych	-14788
▁zmniejszenia	-14789
▁najważniejsze	-14790
UN	-14791
hu	-14792
jmy	-14793
lay	-14794
rup	-14795
sed	-14796
tan	-14797
uge	-14798
yed	-14799
zyj	-14800
▁01	-14801
▁78	-14802
▁Rh	-14803
▁dl	-14804
agne	-14805
atyz	-14806
czać	-14807
iałe	-14808
icks	-14809
jący	-14810
mien	-14811
rold	-14812
rząc	-14813
▁Div	-14814
▁Dol	-14815
▁Len	-14816
▁Lut	-14817
▁Sad	-14818
▁Zim	-14819
▁bzd	-14820
▁cli	-14821
▁pir	-14822
▁sod	-14823
▁tum	-14824
nięty	-14825
pokoj	-14826
zyden	-14827
▁1000	-14828
▁Bern	-14829
▁Kirk	-14830
▁Mall	-14831
▁Poor	-14832
▁Whit	-14833
▁Zwie	-14834
▁abym	-14835
▁bazy	-14836
▁civi	-14837
▁edge	-14838
▁goal	-14839
▁groź	-14840
▁haem	-14841
▁loud	-14842
▁pale	-14843
▁pens	-14844
▁proc	-14845
▁tool	-14846
▁wise	-14847
▁zawo	-14848
dziela	-14849
▁Eston	-14850
▁Które	-14851
▁Lewis	-14852
▁Marty	-14853
▁Przet	-14854
▁agres	-14855
▁angel	-14856
▁atmos	-14857
▁cerem	-14858
▁chlor	-14859
▁enzym	-14860
▁grade	-14861
▁groma	-14862
▁gówno	-14863
▁hiszp	-14864
▁mayor	-14865
▁nauki	-14866
▁nikim	-14867
▁plate	-14868
▁prosz	-14869
▁respe	-14870
▁sąsie	-14871
▁słone	-14872
▁toale	-14873
▁trees	-14874
▁Święt	-14875
gration	-14876
orgeous	-14877
▁Philli	-14878
▁Travis	-14879
▁chirur	-14880
▁depozy	-14881
▁discon	-14882
▁frozen	-14883
▁garage	-14884
▁hearts	-14885
▁jedyne	-14886
▁powlek	-14887
▁przeni	-14888
▁przewa	-14889
▁replac	-14890
▁specia	-14891
▁throat	-14892
▁uciekł	-14893
▁ściśle	-14894
▁Believe	-14895
▁Frankie	-14896
▁Rebecca	-14897
▁Zaczyna	-14898
▁chłopca	-14899
▁dzwonił	-14900
▁lessons	-14901
▁lokaliz	-14902
▁ludzkie	-14903
▁ostrzeg	-14904
▁sheriff	-14905
▁sprzętu	-14906
▁słyszeć	-14907
stitution	-14908
▁Amerykan	-14909
▁additive	-14910
▁assigned	-14911
▁komisarz	-14912
▁misunder	-14913
▁ordinary	-14914
▁ostatnią	-14915
▁pielęgni	-14916
▁pojechać	-14917
▁sposobem	-14918
▁stanowić	-14919
dzieliście	-14920
▁Elizabeth	-14921
▁addressed	-14922
▁allocated	-14923
▁explained	-14924
▁frequency	-14925
▁mężczyzną	-14926
▁początkow	-14927
▁processes	-14928
▁składania	-14929
▁strategic	-14930
▁transform	-14931
▁tworzenia	-14932
▁współczyn	-14933
▁wyglądają	-14934
▁background	-14935
▁comprehens	-14936
▁eventually	-14937
▁recognised	-14938
▁struktural	-14939
▁przyjemność	-14940
▁konieczności	-14941
▁transparency	-14942
▁wspólnotowym	-14943
▁niepożądanych	-14944
18	-14945
erk	-14946
idy	-14947
nok	-14948
rin	-14949
urd	-14950
▁09	-14951
▁52	-14952
▁Au	-14953
▁CE	-14954
▁Id	-14955
▁Kh	-14956
▁SG	-14957
▁XX	-14958
▁Yo	-14959
▁tj	-14960
ador	-14961
brew	-14962
entu	-14963
fini	-14964
inda	-14965
niły	-14966
rali	-14967
rzyg	-14968
ówić	-14969
ługa	-14970
łuje	-14971
▁Bor	-14972
▁Squ	-14973
▁Tel	-14974
▁Use	-14975
▁pin	-14976
▁rig	-14977
▁smo	-14978
derer	-14979
nieni	-14980
owemu	-14981
▁Glad	-14982
▁Guid	-14983
▁Halo	-14984
▁Okaz	-14985
▁Pros	-14986
▁Read	-14987
▁Rzuć	-14988
▁Ręce	-14989
▁Zbyt	-14990
▁defe	-14991
▁dołą	-14992
▁fart	-14993
▁lewo	-14994
▁lift	-14995
▁oral	-14996
▁scan	-14997
nianie	-14998
niałam	-14999
▁Given	-15000
▁Might	-15001
▁Pokaz	-15002
▁absor	-15003
▁blank	-15004
▁camer	-15005
▁ciągł	-15006
▁error	-15007
▁koleż	-15008
▁pogor	-15009
▁poniż	-15010
▁portf	-15011
▁skali	-15012
▁walls	-15013
▁waszą	-15014
▁wczes	-15015
▁wykry	-15016
▁zazna	-15017
▁zrani	-15018
acyjnym	-15019
cession	-15020
▁Action	-15021
▁Carrie	-15022
▁Castle	-15023
▁Harold	-15024
▁Matthe	-15025
▁Miller	-15026
▁Ostroż	-15027
▁Palmer	-15028
▁apolog	-15029
▁assure	-15030
▁carbon	-15031
▁cousin	-15032
▁cukrzy	-15033
▁czekol	-15034
▁estate	-15035
▁hardly	-15036
▁księży	-15037
▁mojemu	-15038
▁niewol	-15039
▁opuści	-15040
▁patrol	-15041
▁powder	-15042
▁prezyd	-15043
▁repeat	-15044
▁służyć	-15045
▁traged	-15046
▁ustali	-15047
▁waters	-15048
▁wyszło	-15049
▁zabija	-15050
▁zarobi	-15051
▁Kapitan	-15052
▁Nigdzie	-15053
▁Pewnego	-15054
▁Pracuję	-15055
▁Prawdzi	-15056
▁custody	-15057
▁dowiesz	-15058
▁emocjon	-15059
▁impreza	-15060
▁ostrzeż	-15061
▁podlega	-15062
▁połowie	-15063
▁reakcji	-15064
▁replace	-15065
▁revenue	-15066
▁touched	-15067
niesienia	-15068
unication	-15069
▁Istnieje	-15070
▁Wreszcie	-15071
▁disposal	-15072
▁district	-15073
▁imported	-15074
▁instance	-15075
▁occasion	-15076
▁przedłoż	-15077
▁selected	-15078
▁shopping	-15079
▁utrzymyw	-15080
▁weakness	-15081
▁wiarygod	-15082
▁wyjechać	-15083
▁Konwencji	-15084
▁Następnie	-15085
▁Otherwise	-15086
▁budgetary	-15087
▁component	-15088
▁democracy	-15089
▁encourage	-15090
▁liability	-15091
▁officials	-15092
▁procedurę	-15093
▁przyjęciu	-15094
▁wiedzieli	-15095
▁Absolutely	-15096
▁określenie	-15097
▁pozwolenie	-15098
▁priorities	-15099
▁stworzenie	-15100
▁submission	-15101
▁wytycznych	-15102
▁Zjednoczone	-15103
▁accompanied	-15104
▁transferred	-15105
▁dostosowania	-15106
▁specifically	-15107
▁społeczności	-15108
▁postępowaniem	-15109
▁skomplikowane	-15110
▁okolicznościach	-15111
▁recommendations	-15112
16	-15113
MO	-15114
eb	-15115
acu	-15116
ati	-15117
cio	-15118
ett	-15119
gle	-15120
imi	-15121
kes	-15122
kum	-15123
nki	-15124
rub	-15125
ręt	-15126
uli	-15127
utu	-15128
yes	-15129
żyt	-15130
▁63	-15131
▁EK	-15132
▁Om	-15133
▁ol	-15134
▁ri	-15135
oner	-15136
usie	-15137
łata	-15138
▁4.2	-15139
▁Bib	-15140
▁Syl	-15141
▁aer	-15142
▁baj	-15143
▁civ	-15144
▁hał	-15145
bered	-15146
dzona	-15147
ongue	-15148
owiem	-15149
regul	-15150
sters	-15151
szyng	-15152
▁Braz	-15153
▁Burn	-15154
▁Dwie	-15155
▁Mess	-15156
▁Opin	-15157
▁Road	-15158
▁Rory	-15159
▁Zauf	-15160
▁celi	-15161
▁coup	-15162
▁damy	-15163
▁gall	-15164
▁płci	-15165
▁tiny	-15166
▁tędy	-15167
będzie	-15168
jących	-15169
▁Andre	-15170
▁Marco	-15171
▁Ogląd	-15172
▁Small	-15173
▁Trade	-15174
▁audit	-15175
▁awans	-15176
▁badly	-15177
▁bazie	-15178
▁czyst	-15179
▁dumna	-15180
▁faces	-15181
▁firmę	-15182
▁flash	-15183
▁glini	-15184
▁hired	-15185
▁lizbo	-15186
▁małym	-15187
▁moder	-15188
▁pasku	-15189
▁potęż	-15190
▁renew	-15191
▁rosyj	-15192
▁sandw	-15193
▁sercu	-15194
▁talks	-15195
▁tears	-15196
▁trace	-15197
▁uznać	-15198
▁żadna	-15199
odatkow	-15200
▁Gdybyś	-15201
▁appeal	-15202
▁behavi	-15203
▁ciężar	-15204
▁crimes	-15205
▁dalsze	-15206
▁farmak	-15207
▁jakość	-15208
▁liceum	-15209
▁preced	-15210
▁random	-15211
▁reward	-15212
▁rzadko	-15213
▁served	-15214
▁shared	-15215
▁towary	-15216
▁warned	-15217
▁wykład	-15218
▁zdarza	-15219
▁śmieci	-15220
entleman	-15221
▁Agencji	-15222
▁Thought	-15223
▁awesome	-15224
▁kolejną	-15225
▁musiało	-15226
▁nadmier	-15227
▁protein	-15228
▁próbuję	-15229
▁północy	-15230
▁recover	-15231
▁screwed	-15232
▁specyfi	-15233
▁stabili	-15234
▁succeed	-15235
▁zaczęło	-15236
ervations	-15237
niejszego	-15238
▁Przynios	-15239
▁artykule	-15240
▁attitude	-15241
▁demokrat	-15242
▁doskonał	-15243
▁obejrzeć	-15244
▁odnaleźć	-15245
▁ogólnego	-15246
▁pistolet	-15247
▁południe	-15248
▁projekty	-15249
▁sprzedać	-15250
▁survived	-15251
▁thorough	-15252
▁ustalone	-15253
▁śledztwo	-15254
▁basically	-15255
▁materiału	-15256
▁narzędzia	-15257
▁pregnancy	-15258
▁California	-15259
▁alternatyw	-15260
▁compatible	-15261
▁połączenia	-15262
▁proporcjon	-15263
▁threatened	-15264
▁uwzględnić	-15265
▁charakterze	-15266
▁competitive	-15267
[...]
